[PAD]
[UNK]
[CLS]
[SEP]
[MASK]
<unused0>
!
"
#
$
%
&
'
(
)
*
+
,
-
.
/
0
1
2
3
4
5
6
7
8
9
:
;
<
=
>
?
@
A
B
C
D
E
F
G
H
I
J
K
L
M
N
O
P
Q
R
S
T
U
V
W
X
Y
Z
[
\
]
^
_
`
a
b
c
d
e
f
g
h
i
j
k
l
m
n
o
p
q
r
s
t
u
v
w
x
y
z
{
|
}
~
£
¥
§
©
«
¬
®
°
±
·
»
À
Á
Â
Ä
Å
Æ
Ç
É
Í
Î
Ó
Ô
Ö
×
Ø
Ú
Ü
Þ
ß
à
á
â
ã
ä
å
æ
ç
è
é
ê
ë
ì
í
î
ï
ð
ñ
ò
ó
ô
õ
ö
÷
ø
ù
ú
û
ü
ý
þ
Ā
ā
ă
ą
ć
Č
č
Đ
đ
ē
ĕ
ė
ę
ě
ğ
ħ
ĩ
Ī
ī
İ
ı
ľ
ł
ń
ŋ
Ō
ō
ŏ
ő
œ
ř
Ś
ś
Ş
ş
Š
š
ţ
ť
ũ
ū
ŭ
ź
ż
Ž
ž
Ə
ƒ
ơ
ư
ǎ
ǐ
ǒ
ǔ
ǫ
ș
ț
ɐ
ɑ
ɒ
ɔ
ɕ
ə
ɛ
ɜ
ɡ
ɣ
ɨ
ɪ
ɫ
ɲ
ɴ
ɾ
ʁ
ʂ
ʃ
ʊ
ʌ
ʎ
ʏ
ʒ
ʔ
ʤ
ʻ
ʾ
ʿ
ˈ
ˊ
ˋ
ˌ
ː
˧
˩
́
̃
̇
̈
̍
̞
̪
̯
̰
͡
Α
Β
Γ
Δ
Ε
Ζ
Θ
Ι
Κ
Λ
Μ
Ν
Ξ
Ο
Π
Σ
Τ
Φ
Χ
Ψ
Ω
ά
έ
ή
ί
α
β
γ
δ
ε
ζ
η
θ
ι
κ
λ
μ
ν
ξ
ο
π
ρ
ς
σ
τ
υ
φ
χ
ψ
ω
ό
ύ
ώ
І
А
Б
В
Г
Д
Е
З
И
Й
К
Л
М
Н
О
П
Р
С
Т
У
Ф
Х
Ц
Ч
Ш
Э
Ю
Я
а
б
в
г
д
е
ж
з
и
й
к
л
м
н
о
п
р
с
т
у
ф
х
ц
ч
ш
щ
ъ
ы
ь
э
ю
я
ё
і
ї
ј
њ
ћ
ў
ү
ө
Հ
ա
գ
ե
ի
կ
հ
ղ
մ
յ
ն
ո
ս
տ
ր
ւ
ք
ְ
ִ
ֵ
ֶ
ַ
ָ
ֹ
ּ
ׁ
א
ב
ג
ד
ה
ו
ז
ח
ט
י
כ
ל
ם
מ
ן
נ
ס
ע
פ
צ
ק
ר
ש
ת
آ
أ
إ
ئ
ا
ب
ة
ت
ث
ج
ح
خ
د
ر
ز
س
ش
ص
ض
ط
ظ
ع
غ
ف
ق
ك
ل
م
ن
ه
و
ى
ي
پ
چ
ک
گ
ی
ް
ं
अ
क
ख
ग
च
ज
ट
ड
ण
त
थ
द
ध
न
प
ब
भ
म
य
र
ल
व
श
स
ह
़
ा
ि
ी
ु
े
ो
्
দ
ন
ব
ম
র
া
্
க
ச
ட
ண
த
ன
ம
ய
ர
வ
ா
ி
ு
்
യ
വ
്
ක
ත
ද
න
ම
ය
ර
ස
්
ා
ි
ු
ก
ข
ค
ง
จ
ฉ
ช
ซ
ญ
ณ
ด
ต
ถ
ท
ธ
น
บ
ป
พ
ฟ
ภ
ม
ย
ร
ล
ว
ศ
ษ
ส
ห
อ
ะ
ั
า
ิ
ี
ื
ุ
ู
เ
แ
โ
ใ
ไ
็
่
้
์
ํ
ນ
ປ
ວ
າ
་
།
ཁ
ག
ང
ད
ན
པ
བ
མ
ཚ
འ
ར
ལ
ཤ
ས
ི
ུ
ེ
ོ
ྱ
ྲ
က
င
တ
မ
ာ
ိ
ု
ေ
း
်
ျ
ა
ბ
გ
დ
ე
ვ
თ
ი
კ
ლ
მ
ნ
ო
პ
რ
ს
ტ
უ
ფ
ქ
შ
ძ
ხ
ჯ
ᄂ
ᄅ
ᄇ
ᄏ
ᄒ
ᅵ
ᆞ
ក
ង
ជ
ដ
ន
ប
ព
ម
រ
ស
ា
ុ
្
ᠠ
ᠡ
ᠢ
ᠣ
ᠤ
ᠨ
ᠩ
ᠪ
ᠭ
ᠮ
ᠯ
ᠰ
ᠲ
ᠴ
ᠵ
ᠶ
ᠷ
ᠸ
ᡝ
ᡞ
ᡠ
ᡤ
ᡥ
ᡧ
ᡳ
ḍ
Ḥ
ḥ
ḷ
ṃ
ṅ
ṇ
ṛ
ṣ
Ṭ
ṭ
ạ
ả
ầ
ậ
ắ
ế
ễ
ệ
ị
ố
ồ
ộ
ớ
ờ
ợ
ụ
ủ
ỹ
ἀ
Ἀ
ἐ
ἔ
ἰ
Ἰ
ὄ
Ὀ
ὐ
ὰ
ὶ
ὸ
ῆ
ῖ
ῦ
ῶ
‐
–
—
―
‖
‘
’
“
”
„
†
•
‰
′
※
‿
⁄
€
₳
←
↑
→
↓
⇒
⇔
∀
∂
∇
∈
∑
−
∗
∘
√
∞
∠
∧
∨
∩
∪
∫
∴
∶
∼
≅
≈
≒
≠
≡
≤
≥
≦
≧
≪
≫
⊂
⊆
⊕
⊗
⊿
⋅
⋯
─
━
┃
┏
┓
┗
┛
┣
█
■
□
▲
△
▷
▽
◆
◇
○
◎
●
◯
★
☆
☖
☗
♀
♂
♠
♡
♣
♥
♪
♭
♯
⚫
✕
✩
❚
➔
⟨
⟩
、
。
〃
々
〆
〇
〈
〉
《
》
「
」
『
』
【
】
〒
〔
〕
〜
〝
〟
ぁ
あ
ぃ
い
ぅ
う
ぇ
え
ぉ
お
か
が
き
ぎ
く
ぐ
け
げ
こ
ご
さ
ざ
し
じ
す
ず
せ
ぜ
そ
ぞ
た
だ
ち
ぢ
っ
つ
づ
て
で
と
ど
な
に
ぬ
ね
の
は
ば
ぱ
ひ
び
ぴ
ふ
ぶ
ぷ
へ
べ
ぺ
ほ
ぼ
ぽ
ま
み
む
め
も
ゃ
や
ゅ
ゆ
ょ
よ
ら
り
る
れ
ろ
ゎ
わ
ゐ
ゑ
を
ん
゙
゚
ゝ
ゞ
゠
ァ
ア
ィ
イ
ゥ
ウ
ェ
エ
ォ
オ
カ
ガ
キ
ギ
ク
グ
ケ
ゲ
コ
ゴ
サ
ザ
シ
ジ
ス
ズ
セ
ゼ
ソ
ゾ
タ
ダ
チ
ヂ
ッ
ツ
ヅ
テ
デ
ト
ド
ナ
ニ
ヌ
ネ
ノ
ハ
バ
パ
ヒ
ビ
ピ
フ
ブ
プ
ヘ
ベ
ペ
ホ
ボ
ポ
マ
ミ
ム
メ
モ
ャ
ヤ
ュ
ユ
ョ
ヨ
ラ
リ
ル
レ
ロ
ヮ
ワ
ヰ
ヱ
ヲ
ン
ヴ
ヵ
ヶ
・
ー
ヽ
ㄧ
ㇱ
ㇷ
ㇺ
㹨
一
丁
七
万
丈
三
上
下
不
与
丐
丑
且
丕
世
丘
丙
东
丞
両
並
中
串
丶
丸
丹
主
丼
乂
乃
久
么
之
乍
乎
乏
乐
乖
乗
乘
乙
九
乞
也
乱
乳
乾
亀
亂
了
予
争
事
二
于
云
互
五
井
亘
亙
些
亜
亞
亡
亢
交
亥
亦
亨
享
京
亭
亮
亰
亳
人
什
仁
仄
仇
今
介
仍
仏
仔
仕
他
仗
付
仙
代
令
以
仮
仰
仲
件
任
份
企
伊
伍
伎
伏
伐
休
会
伝
伯
伴
伶
伸
伺
似
伽
佃
但
佇
位
低
住
佐
佑
体
何
佗
余
佚
佛
作
佞
佟
你
佩
佬
佳
併
佼
使
侂
侃
來
侈
例
侍
侑
侗
侘
供
依
侠
価
侭
侮
侯
侵
侶
便
俀
係
促
俄
俊
俎
俑
俗
俘
俚
保
俟
俠
信
俣
俥
修
俯
俳
俵
俸
俺
倅
倉
個
倍
們
倒
倖
候
倚
借
倣
値
倦
倩
倪
倫
倭
倶
倹
偃
假
偈
偉
偏
偕
做
停
健
偲
側
偵
偶
偽
傀
傅
傍
傑
傕
傘
備
催
傭
傲
傳
債
傷
傾
僅
僉
僊
働
像
僑
僕
僖
僚
僥
僧
僭
僻
儀
儁
儂
億
儋
儒
儘
儚
償
儡
優
儲
儺
儼
儿
兀
允
元
兄
充
兆
兇
先
光
克
兌
免
兎
児
兒
兗
党
兜
入
內
全
兩
兪
八
公
六
兮
兰
共
关
兵
其
具
典
兼
冀
内
円
冉
冊
册
再
冏
冑
冒
冕
冗
写
军
冠
冢
冤
冥
冨
冪
冬
冰
冲
决
冴
冶
冷
冽
凄
准
凉
凋
凌
凍
凛
凜
凝
几
凡
凤
処
凧
凪
凮
凰
凱
凶
凸
凹
出
函
刀
刁
刃
刄
分
切
刈
刊
刎
刑
刕
列
初
判
別
利
到
刳
制
刷
券
刹
刺
刻
剃
則
削
剋
剌
前
剖
剛
剣
剤
剥
剪
副
剰
剱
割
剳
創
剽
剿
劇
劈
劉
劍
劔
力
功
加
劣
动
助
努
劫
劭
励
労
効
劾
勁
勃
勅
勇
勉
勒
動
勗
勘
務
勛
勝
募
勢
勤
勧
勰
勲
勳
勺
勾
勿
匁
匂
包
匈
匍
匐
匕
化
北
匙
匝
匠
匡
匣
匪
匯
匱
匹
区
医
匿
區
十
千
升
午
卉
半
卍
华
卑
卒
卓
協
南
単
博
卜
卞
占
卡
卦
卯
印
危
即
却
卵
卷
卸
卿
厄
厓
厘
厚
厝
原
厠
厥
厦
厨
厩
厭
厲
厳
去
参
參
又
叉
及
友
双
反
収
叔
取
受
叙
叛
叟
叡
叢
口
古
句
叩
只
叫
召
叭
可
台
叱
史
右
叶
号
司
吃
各
合
吉
吊
同
名
后
吏
吐
向
君
吝
吟
吠
否
含
吳
吸
吹
吻
吼
吽
吾
呀
呂
呆
呈
呉
告
呑
呟
周
呪
呰
味
呵
呻
呼
命
咀
咄
咆
咋
和
咎
咒
咢
咤
咥
咨
咩
咫
咬
咲
咳
咸
咽
哀
品
哈
哉
員
哥
哨
哩
哭
哮
哲
哺
唄
唆
唇
唐
唖
唯
唱
唸
唾
啄
商
問
啓
啖
啜
啼
喀
善
喆
喇
喉
喊
喋
喘
喚
喜
喝
喧
喩
喪
喫
喬
喰
営
嗅
嗇
嗚
嗜
嗟
嗣
嗾
嘆
嘉
嘔
嘗
嘘
嘩
嘯
嘱
嘲
嘴
噂
噌
噛
器
噪
噲
噴
噶
噸
噺
嚆
嚇
嚙
嚢
嚥
嚮
嚴
嚶
嚼
囁
囂
囃
囚
四
回
因
团
団
园
囮
困
囲
図
围
固
国
圀
圃
圈
國
圍
圏
園
圓
圖
團
土
圧
在
圭
地
圳
场
址
坂
均
坊
坎
坏
坐
坑
坡
坤
坦
坩
坪
垂
垈
型
垓
垢
垣
垪
埃
埋
城
埒
埔
埕
埜
域
埠
埴
埵
執
培
基
埼
堀
堂
堅
堆
堕
堝
堡
堤
堪
堯
堰
報
場
堵
堺
塀
塁
塊
塌
塑
塒
塔
塗
塘
塙
塚
塞
塢
塩
填
塵
塹
塾
境
墅
墓
増
墜
墟
墨
墩
墳
墺
墻
墾
壁
壇
壊
壌
壓
壕
壙
壜
壟
壢
壩
士
壬
壮
声
壱
売
壷
壹
壺
壽
変
夏
夔
夕
外
夘
夙
多
夜
夢
夥
大
天
太
夫
夭
央
失
夷
夾
奄
奇
奈
奉
奎
奏
奐
契
奔
奕
套
奘
奚
奠
奢
奥
奧
奨
奪
奭
奮
女
奴
奸
好
如
妃
妄
妊
妍
妓
妖
妙
妤
妥
妨
妬
妲
妹
妻
妾
姉
始
姐
姑
姓
委
姚
姜
姥
姦
姨
姪
姫
姶
姻
姿
威
娃
娑
娘
娜
娟
娠
娥
娩
娯
娶
娼
婁
婆
婉
婕
婚
婢
婦
婺
婿
媒
媚
媛
媽
嫁
嫉
嫌
嫡
嫦
嫩
嬉
嬌
嬛
嬢
嬪
嬬
嬰
嬲
嬴
子
孔
孕
字
存
孚
孜
孝
孟
季
孤
学
孩
孫
孵
學
孺
它
宅
宇
守
安
宋
完
宍
宏
宕
宗
官
宙
定
宛
宜
宝
実
客
宣
室
宥
宦
宮
宰
害
宴
宵
家
宸
容
宿
寂
寄
寅
密
寇
富
寒
寓
寔
寛
寝
察
寡
實
寧
寨
審
寬
寮
寰
寳
寵
寶
寸
寺
対
寿
封
専
射
尅
将
將
專
尉
尊
尋
對
導
小
少
尓
尔
尖
尚
尤
尭
就
尸
尹
尺
尻
尼
尽
尾
尿
局
屁
居
屈
届
屋
屍
屎
屏
屑
屓
展
属
屠
層
履
屬
屯
山
屹
岌
岐
岑
岛
岡
岩
岬
岱
岳
岷
岸
峅
峙
峠
峡
峨
峪
峯
峰
峴
島
峻
崇
崋
崎
崑
崔
崖
崗
崙
崚
崩
嵆
嵊
嵌
嵐
嵜
嵩
嵬
嵯
嶋
嶌
嶐
嶝
嶠
嶷
嶺
嶼
嶽
巌
巍
巒
巖
川
州
巡
巣
工
左
巧
巨
巫
差
己
已
巳
巴
巷
巻
巽
巾
市
布
帆
希
帕
帖
帙
帚
帛
帝
帥
師
席
帯
帰
帳
帷
常
帽
幀
幄
幅
幇
幌
幕
幟
幡
幢
幣
干
平
年
并
幸
幹
幻
幼
幽
幾
广
庁
広
庄
庇
床
序
底
庖
店
庚
府
度
座
庫
庭
庵
庶
康
庸
庾
廂
廃
廆
廈
廉
廊
廓
廖
廞
廟
廠
廣
廨
廩
廬
廳
延
廷
廸
建
廻
廼
廿
弁
弄
弉
弊
弋
弌
式
弐
弑
弓
弔
引
弖
弗
弘
弛
弟
张
弥
弦
弧
弩
弱
張
強
弼
弾
彅
彊
彌
彎
当
彗
彙
彝
彡
形
彥
彦
彧
彩
彪
彫
彬
彭
彰
影
彷
役
彼
彿
往
征
徂
径
待
徊
律
後
徐
徒
従
得
徘
徙
從
徠
御
徨
復
循
徭
微
徳
徴
德
徹
徽
心
必
忌
忍
忖
志
忘
忙
応
忠
快
念
忻
忽
怒
怖
怜
思
怠
怡
急
性
怨
怪
怯
总
恂
恃
恆
恋
恍
恐
恒
恕
恢
恣
恤
恥
恨
恩
恪
恫
恬
恭
息
恰
恵
悉
悌
悍
悔
悛
悟
悠
患
悦
悩
悪
悰
悲
悳
悴
悶
悸
悼
情
惇
惑
惕
惚
惜
惟
惠
惡
惣
惧
惨
惰
想
惹
惺
愁
愈
愉
愍
意
愕
愚
愛
感
愴
愷
愼
愾
慄
慇
慈
慊
態
慌
慎
慕
慟
慢
慣
慧
慨
慮
慰
慶
憂
憊
憎
憐
憑
憔
憚
憤
憧
憩
憫
憬
憲
憶
憺
憾
懃
懇
懈
應
懋
懌
懐
懲
懸
懺
懼
懿
戀
戈
戊
戌
戍
戎
成
我
戒
戔
或
戚
戟
戦
戩
截
戮
戯
戰
戴
戶
戸
戻
房
所
扁
扇
扈
扉
手
才
扎
打
払
托
扮
扱
扶
批
扼
承
技
抄
抉
把
抑
抒
投
抗
折
抛
抜
択
披
抱
抵
抹
押
抽
拂
担
拉
拌
拍
拐
拒
拓
拔
拗
拘
拙
招
拝
拠
拡
括
拭
拮
拱
拳
拵
拶
拷
拼
拾
拿
持
挂
指
按
挑
挙
挟
挨
挫
振
挺
挽
挿
捉
捌
捍
捏
捐
捕
捗
捜
捧
捨
捩
据
捲
捷
捺
捻
掃
授
掌
掏
排
掖
掘
掛
掟
掠
採
探
掣
接
控
推
掩
措
掬
掲
掴
掻
掾
揃
揄
揆
揉
描
提
揖
揚
換
握
揮
援
揶
揺
損
搏
搗
搜
搦
搬
搭
携
搾
摂
摘
摧
摩
摯
摸
摺
撃
撈
撒
撓
撚
撞
撤
撥
撫
播
撮
撰
撲
撹
撻
撼
擁
擂
擅
操
擔
據
擢
擦
擧
擬
擱
擲
擾
攀
攘
攝
攣
攪
攫
攬
支
攷
攸
改
攻
放
政
故
效
敎
敏
救
敖
敗
教
敞
敢
散
敦
敬
数
敲
整
敵
敷
數
斂
斃
文
斉
斌
斎
斐
斑
斗
料
斛
斜
斡
斤
斥
斧
斬
断
斯
新
方
於
施
旁
旅
旋
旌
族
旗
旛
无
既
日
旦
旧
旨
早
旬
旭
旱
旺
旻
昂
昆
昇
昉
昊
昌
明
昏
易
昔
昕
星
映
春
昧
昨
昭
是
昱
昴
昵
昶
昼
晁
時
晃
晄
晋
晏
晒
晗
晝
晞
晟
晢
晦
晧
晨
晩
普
景
晰
晴
晶
智
暁
暇
暈
暉
暎
暐
暑
暖
暗
暠
暢
暦
暫
暮
暲
暴
暹
暾
曁
曄
曇
曉
曖
曙
曜
曝
曠
曦
曰
曲
曳
更
書
曹
曺
曼
曽
曾
替
最
會
月
有
朋
服
朐
朔
朕
朗
望
朝
期
朦
朧
木
未
末
本
札
朮
朱
朴
朶
机
朽
杁
杉
李
杏
材
村
杓
杖
杙
杜
杞
束
杠
条
杢
杣
来
杭
杮
杯
杰
東
杲
杳
杵
杷
杼
松
板
枇
枋
析
枕
林
枚
果
枝
枠
枡
枢
枩
枯
枳
架
枷
柄
柊
柏
某
柑
染
柔
柘
柚
柞
柩
柯
柱
柳
柴
柵
査
柾
柿
栁
栂
栃
栄
栓
栖
栗
栞
校
栢
栩
株
栫
栴
核
根
格
栽
桀
桁
桂
桃
案
桐
桑
桓
桔
桜
桝
桟
桧
桴
桶
桿
梁
梃
梅
梓
梗
梛
條
梟
梠
梢
梧
梨
梯
械
梱
梳
梵
梶
梼
棄
棉
棋
棍
棒
棕
棗
棘
棚
棟
棠
棣
森
棲
棵
棹
棺
椀
椅
椋
植
椎
椒
椙
椚
椛
検
椰
椴
椹
椿
楊
楓
楔
楕
楙
楚
楞
楠
楡
楢
楨
楫
業
楮
楯
楳
極
楷
楸
楼
楽
概
榊
榎
榑
榔
榕
榛
榜
榧
榮
榴
槃
槇
構
槌
槍
槎
槐
槓
様
槙
槨
槻
槽
槿
樂
樅
樊
樋
樒
樓
樗
標
樟
模
樣
権
横
樫
樵
樹
樺
樽
橇
橈
橋
橘
橙
機
橳
橿
檀
檄
檎
檗
檜
檢
檣
檬
檮
檳
檸
檻
櫂
櫃
櫓
櫚
櫛
櫟
櫨
櫻
欄
欅
權
欒
欠
次
欣
欧
欲
欺
欽
款
歆
歇
歌
歎
歐
歓
歙
止
正
此
步
武
歩
歪
歯
歳
歴
歷
歸
歹
死
歿
殆
殉
殊
残
殖
殘
殤
殯
殲
殴
段
殷
殺
殻
殿
毀
毅
毌
母
毎
毐
毒
毓
比
毗
毘
毛
毫
毬
毯
氈
氏
氐
民
気
氣
水
氷
永
氾
汀
汁
求
汉
汎
汐
汕
汗
汚
汜
汝
江
池
汪
汰
汲
汴
汶
決
汽
汾
沁
沂
沃
沅
沈
沌
沐
沒
沓
沔
沖
沙
沛
没
沢
沫
沮
河
沸
油
治
沼
沽
沾
沿
況
泄
泉
泊
泌
泓
法
泗
泛
泡
波
泣
泥
注
泪
泰
泳
洋
洒
洗
洙
洛
洞
津
洩
洪
洮
洲
洵
洸
活
洽
派
流
浄
浅
浙
浚
浜
浣
浦
浩
浪
浬
浮
浴
海
浸
涅
涇
消
涌
涎
涙
涛
涜
涪
涯
液
涵
涸
涼
涿
淀
淄
淅
淆
淇
淋
淑
淘
淞
淡
淤
淨
淫
淮
深
淳
淵
混
淹
淺
添
清
渇
済
渉
渋
渓
渕
渙
渚
減
渝
渟
渠
渡
渣
渤
渥
渦
温
渫
測
渭
港
游
渺
渾
湊
湍
湖
湘
湛
湣
湧
湫
湯
湾
湿
満
源
準
溜
溝
溟
溢
溥
溧
溪
溯
溶
溺
滁
滄
滅
滇
滉
滋
滎
滑
滓
滔
滕
滝
滞
滬
滲
滴
滸
滾
滿
漁
漂
漆
漉
漏
漑
演
漕
漠
漢
漣
漫
漬
漱
漲
漳
漸
漿
潁
潅
潔
潘
潜
潞
潟
潤
潭
潮
潰
潴
潼
潽
澁
澂
澄
澎
澗
澠
澤
澪
澱
澳
澹
激
濁
濂
濃
濊
濘
濟
濠
濡
濤
濫
濬
濮
濯
濱
濵
濾
瀆
瀉
瀋
瀏
瀑
瀕
瀘
瀛
瀝
瀞
瀟
瀧
瀨
瀬
瀾
灌
灘
灝
灞
灣
灤
火
灯
灰
灸
灼
災
炁
炅
炉
炊
炎
炒
炙
炫
炬
炭
炮
炯
炳
炸
点
為
烈
烏
烙
烟
烷
烹
烽
焉
焔
焙
焚
無
焦
焰
然
焼
煇
煉
煌
煎
煕
煙
煤
煥
照
煩
煬
煮
煽
熈
熊
熔
熕
熙
熟
熨
熱
熹
熾
燁
燃
燈
燎
燐
燒
燕
燗
營
燥
燦
燧
燭
燮
燵
燻
燼
燾
燿
爆
爛
爨
爪
爬
爰
爱
爲
爵
父
爺
爻
爽
爾
牀
牆
片
版
牌
牒
牘
牙
牛
牝
牟
牡
牢
牧
物
牲
特
牽
犀
犂
犍
犠
犬
犯
状
狂
狄
狐
狗
狙
狛
狡
狩
独
狭
狸
狼
狽
猊
猗
猛
猜
猟
猥
猩
猪
猫
献
猴
猶
猷
猾
猿
獄
獅
獎
獏
獠
獣
獨
獪
獰
獲
獺
獻
玄
率
玉
王
玖
玠
玥
玩
玫
玲
玻
珀
珂
珈
珉
珊
珍
珎
珏
珖
珠
珣
珥
珪
班
現
球
琅
理
琇
琉
琛
琢
琥
琦
琨
琪
琮
琰
琲
琳
琴
琵
琶
琺
琿
瑀
瑁
瑋
瑕
瑙
瑚
瑛
瑜
瑞
瑟
瑠
瑣
瑤
瑩
瑪
瑯
瑰
瑳
瑶
瑾
璃
璇
璋
璐
璞
璠
璧
璨
環
璽
璿
瓊
瓌
瓏
瓘
瓚
瓜
瓢
瓦
瓶
甄
甌
甑
甕
甘
甚
甜
生
產
産
甥
甦
用
甫
田
由
甲
申
电
男
甸
町
画
界
畏
畑
畔
留
畜
畝
畠
畢
略
畦
番
畫
異
畳
當
畷
畿
疆
疇
疋
疎
疏
疑
疝
疣
疫
疱
疲
疵
疸
疹
疼
疽
疾
痂
病
症
痍
痒
痔
痕
痘
痙
痛
痢
痣
痩
痰
痴
痺
瘍
瘟
瘡
瘢
瘤
瘴
瘻
療
癇
癌
癒
癖
癩
癪
癬
癲
癸
発
登
發
白
百
的
皆
皇
皋
皎
皐
皓
皖
皝
皮
皺
皿
盂
盃
盆
盈
益
盎
盒
盗
盛
盞
盟
盡
監
盤
盥
盧
盪
目
盱
盲
直
相
盾
省
眈
眉
看
県
眞
真
眠
眩
眷
眸
眺
眼
着
睡
睢
督
睦
睨
睹
睺
睾
睿
瞋
瞑
瞞
瞠
瞥
瞬
瞭
瞰
瞳
瞻
瞼
瞽
瞿
矛
矜
矢
矣
知
矧
矩
短
矮
矯
石
砂
砒
研
砕
砥
砦
砧
砲
破
砺
砿
硝
硫
硬
硯
碁
碇
碌
碍
碑
碓
碕
碗
碚
碧
碩
確
碼
碾
磁
磊
磋
磐
磔
磨
磬
磯
磾
礁
礎
礒
礦
礪
礫
礬
示
礼
社
祀
祁
祇
祈
祉
祐
祓
祖
祗
祚
祜
祝
神
祟
祠
祢
祥
票
祭
祷
祺
禁
禄
禅
禊
禍
禎
福
禕
禦
禧
禮
禰
禱
禹
禺
禽
禾
禿
秀
私
秉
秋
科
秒
秘
租
秣
秤
秦
秩
称
移
稀
稈
程
稍
税
稔
稗
稙
稚
稜
稟
稠
種
稱
稲
稷
稻
稼
稽
稿
穀
穂
穆
積
穎
穏
穐
穢
穣
穫
穰
穴
究
穹
空
穿
突
窃
窄
窈
窒
窓
窘
窟
窠
窩
窪
窮
窯
窺
竃
竄
竇
竈
立
站
竜
竟
章
竣
童
竦
竪
端
競
竹
竺
竿
笄
笈
笊
笏
笑
笙
笛
笞
笠
笥
符
第
笵
笹
筆
筈
等
筋
筌
筍
筏
筐
筑
筒
答
策
筝
筠
筥
筧
筬
筮
筰
筵
筺
箆
箇
箋
箍
箏
箒
箔
箕
算
箚
箟
管
箪
箭
箱
箴
箸
節
篁
範
篆
篇
築
篋
篝
篠
篤
篥
篩
篭
篳
簀
簋
簑
簒
簗
簠
簡
簧
簪
簫
簸
簾
簿
籃
籌
籍
籏
籐
籔
籖
籟
籠
籤
籬
米
籾
粁
粂
粉
粋
粍
粒
粕
粗
粘
粛
粟
粤
粥
粧
粲
精
糀
糊
糎
糖
糜
糞
糟
糠
糧
糯
糸
糺
系
糾
紀
紂
約
紅
紆
紇
紊
紋
納
紐
純
紗
紘
紙
級
紛
素
紡
索
紫
紬
累
細
紳
紹
紺
終
絃
組
絅
絆
経
結
絞
絡
絢
絣
給
絨
統
絲
絳
絵
絶
絹
綋
綏
經
継
続
綜
綝
綫
綬
維
綰
綱
網
綴
綵
綸
綺
綻
綽
綾
綿
緊
緋
総
緑
緒
緘
線
緞
締
編
緩
緬
緯
練
緻
縁
縄
縅
縊
縋
縒
縛
縞
縣
縦
縫
縮
縷
縹
縺
縻
總
績
繁
繆
繇
繊
繋
繍
織
繕
繚
繞
繡
繩
繪
繫
繭
繰
繹
繻
繼
纂
續
纏
纒
纓
纜
级
线
缶
缺
罐
罔
罕
罠
罪
罫
置
罰
署
罵
罷
罹
羂
羅
羆
羈
羊
羌
美
羚
羞
群
羨
義
羯
羲
羹
羽
翁
翅
翊
翌
翎
習
翔
翟
翠
翡
翦
翩
翫
翰
翳
翻
翼
耀
老
考
耄
者
耆
而
耐
耕
耗
耘
耳
耶
耽
耿
聊
聖
聘
聚
聞
聟
聡
聯
聰
聲
聳
聴
聶
職
聾
聿
肆
肇
肉
肋
肌
肖
肘
肚
肛
肜
肝
股
肢
肥
肩
肪
肯
肱
育
肴
肺
胃
胆
背
胎
胖
胚
胝
胞
胡
胤
胥
胱
胴
胸
能
脂
脅
脆
脇
脈
脊
脚
脛
脩
脱
脳
脹
脾
腋
腎
腐
腑
腓
腔
腕
腫
腰
腱
腸
腹
腺
腿
膀
膂
膏
膚
膜
膝
膠
膣
膨
膳
膵
膺
膽
膾
膿
臀
臂
臆
臈
臉
臍
臏
臓
臘
臙
臚
臣
臥
臧
臨
自
臭
至
致
臺
臻
臼
舁
舂
舅
與
興
舉
舊
舌
舍
舎
舐
舒
舗
舘
舛
舜
舞
舟
舩
航
舫
般
舳
舵
舶
舷
船
舺
艀
艇
艋
艘
艤
艦
艫
艮
良
艱
色
艶
艸
艾
节
芋
芍
芎
芒
芙
芝
芥
芦
芬
芭
芮
芯
花
芳
芷
芸
芹
芻
芽
苅
苑
苓
苔
苗
苛
苞
苟
苣
若
苦
苧
苫
英
苺
苻
茂
范
茄
茅
茉
茎
茗
茘
茜
茨
茫
茯
茲
茶
茸
茹
荀
荃
草
荊
荏
荒
荘
荷
荻
荼
莆
莇
莉
莒
莘
莚
莞
莢
莫
莱
莽
菁
菅
菊
菌
菏
菓
菖
菘
菜
菟
菩
菫
華
菰
菱
菲
菴
萃
萄
萇
萊
萌
萍
萎
萠
萩
萬
萱
萼
落
葆
葉
葎
著
葛
葡
董
葦
葩
葫
葬
葭
葯
葱
葵
葺
蒋
蒐
蒔
蒙
蒜
蒟
蒡
蒯
蒲
蒴
蒸
蒻
蒼
蒿
蓁
蓄
蓆
蓉
蓋
蓑
蓜
蓬
蓮
蓼
蔀
蔑
蔓
蔗
蔚
蔡
蔣
蔦
蔭
蔵
蔽
蕁
蕃
蕉
蕊
蕎
蕗
蕙
蕨
蕩
蕪
蕭
蕾
薀
薄
薇
薊
薔
薗
薙
薛
薦
薨
薩
薪
薫
薬
薮
薯
藁
藉
藍
藏
藝
藤
藥
藩
藪
藷
藺
藻
蘂
蘄
蘆
蘇
蘊
蘋
蘚
蘭
蘿
虎
虐
虓
虔
處
虚
虜
虞
號
虢
虫
虱
虹
虻
蚊
蚌
蚕
蚝
蚤
蚩
蛆
蛇
蛉
蛋
蛍
蛎
蛙
蛛
蛟
蛤
蛭
蛮
蛯
蛸
蛹
蛾
蜀
蜂
蜃
蜆
蜈
蜘
蜚
蜜
蜥
蜩
蜴
蜷
蜻
蝉
蝋
蝎
蝕
蝗
蝙
蝠
蝦
蝮
蝶
蝸
蝿
螂
融
螢
螺
蟄
蟇
蟠
蟲
蟷
蟹
蟻
蟾
蠅
蠍
蠕
蠢
蠣
蠱
血
衆
行
衍
衒
術
街
衙
衛
衝
衞
衡
衢
衣
表
衫
衰
衷
衾
衿
袁
袂
袈
袋
袍
袖
袞
袢
被
袱
袴
袿
裁
裂
裃
装
裏
裒
裔
裕
補
裟
裡
裲
裳
裴
裵
裸
製
裾
褄
複
褌
褐
褒
褚
褥
褪
褶
褸
褻
襄
襖
襞
襟
襠
襤
襦
襲
襴
襷
西
要
覃
覆
覇
覈
見
規
視
覗
覚
覧
親
観
覺
觀
视
角
觜
解
触
觴
言
訂
訃
計
訊
訌
討
訓
託
記
訛
訝
訟
訢
訣
訥
訪
設
許
訳
訴
訶
診
註
証
詁
詈
詐
詔
評
詛
詞
詠
詡
詢
詣
試
詩
詫
詭
詮
詰
話
該
詳
詹
誂
誄
誅
誇
誉
誌
認
誑
誓
誕
誘
語
誠
誡
誣
誤
誥
誦
誨
説
読
誰
課
誹
誼
調
諂
諄
談
請
諌
諍
諏
諒
論
諜
諡
諦
諧
諫
諭
諮
諱
諶
諷
諸
諺
諾
謀
謁
謂
謄
謌
謎
謐
謔
謗
謙
講
謝
謡
謨
謫
謬
謳
謹
證
識
譙
譚
譜
警
譬
譯
議
譲
譴
護
譽
讀
讃
變
讎
讐
讒
讖
讚
语
请
谷
谿
豁
豆
豈
豊
豐
豚
象
豨
豪
豫
豹
豺
貂
貉
貊
貌
貘
貝
貞
負
財
貢
貧
貨
販
貪
貫
責
貯
貰
貳
貴
貶
買
貸
費
貼
貿
賀
賁
賂
賃
賄
資
賈
賊
賎
賑
賓
賚
賛
賜
賞
賠
賢
賣
賤
賦
質
賭
賴
購
賽
賾
贄
贅
贈
贋
贔
贖
贛
赛
赤
赦
赧
赫
赭
走
赳
赴
起
超
越
趙
趣
趨
足
趾
跋
跏
跗
跛
距
跡
跨
跪
路
跳
践
踊
踏
踞
踢
踪
踵
蹂
蹄
蹊
蹙
蹟
蹠
蹴
蹶
躁
躅
躇
躊
躍
躑
躓
躙
身
躬
躯
躰
躾
軀
車
軋
軌
軍
軒
軕
軛
軟
転
軫
軸
軻
軽
軾
較
載
輌
輓
輔
輕
輛
輜
輝
輩
輪
輯
輳
輸
輻
輿
轄
轅
轆
轉
轍
轎
轟
轡
轢
轤
车
辖
辛
辜
辞
辟
辣
辦
辨
辭
辮
辯
辰
辱
農
辺
辻
込
辿
迂
迄
迅
迎
近
返
迥
迦
迪
迫
迭
述
迴
迷
迹
追
退
送
逃
逅
逆
逍
透
逐
逓
途
逖
逗
這
通
逝
逞
速
造
逡
逢
連
逮
週
進
逵
逸
逹
逼
遁
遂
遅
遇
遊
運
遍
過
遏
遐
道
達
違
遙
遜
遠
遡
遣
遥
適
遭
遮
遵
遷
選
遺
遼
遽
避
邀
邁
邂
邃
還
邇
邈
邉
邊
邏
邑
邕
邢
那
邦
邨
邪
邯
邱
邳
邵
邸
邽
邾
郁
郃
郅
郊
郎
郛
郝
郞
郡
郢
郤
部
郭
郯
郵
郷
都
鄂
鄉
鄒
鄕
鄙
鄧
鄭
鄯
鄰
鄱
鄲
鄴
酈
酉
酊
酋
酌
配
酎
酒
酔
酢
酩
酪
酬
酵
酷
酸
醂
醇
醉
醍
醐
醒
醗
醜
醤
醪
醫
醸
采
釈
釉
釋
里
重
野
量
釐
金
釗
釘
釜
針
釣
釦
釧
釵
鈍
鈎
鈑
鈔
鈕
鈞
鈴
鈷
鈿
鉄
鉅
鉈
鉉
鉋
鉏
鉗
鉛
鉞
鉢
鉤
鉦
鉱
鉷
鉾
銀
銃
銅
銈
銑
銓
銕
銖
銘
銚
銛
銜
銭
鋏
鋒
鋤
鋪
鋭
鋲
鋳
鋸
鋺
鋼
錆
錐
錘
錚
錠
錢
錣
錦
錨
錫
錬
錮
錯
録
錺
鍈
鍋
鍍
鍔
鍛
鍬
鍮
鍵
鍼
鍾
鎌
鎔
鎖
鎗
鎚
鎧
鎬
鎭
鎮
鎰
鎹
鏃
鏑
鏖
鏗
鏞
鏡
鏢
鏤
鐐
鐘
鐙
鐡
鐵
鐸
鑁
鑑
鑒
鑓
鑚
鑢
鑫
鑲
鑼
鑽
鑿
铁
長
长
門
閂
閃
閇
閉
開
閏
閑
閒
間
閔
閖
閘
関
閣
閤
閥
閨
閩
閭
閲
閻
閼
閾
闇
闊
闍
闐
闔
闕
闖
闘
關
闡
闢
闥
闽
阜
阪
阮
阯
防
阻
阿
陀
陂
附
际
陋
陌
降
限
陘
陛
陝
陞
陟
院
陣
除
陥
陪
陰
陳
陴
陵
陶
陷
陸
険
陽
隅
隆
隈
隊
隋
階
随
隔
隕
隗
隘
隙
際
障
隠
隣
隧
隨
隴
隷
隸
隻
隼
雀
雁
雄
雅
集
雇
雉
雌
雍
雎
雑
雕
雖
雙
雛
雜
雞
離
難
雨
雪
雫
雰
雲
零
雷
雹
電
需
霄
霆
震
霊
霍
霓
霖
霜
霞
霧
霰
露
霸
霹
霽
靂
靄
靈
靉
靑
青
靖
静
靜
非
靠
靡
面
革
靫
靭
靱
靳
靴
靺
鞄
鞅
鞆
鞋
鞍
鞏
鞘
鞜
鞠
鞨
鞭
鞮
鞴
韋
韓
韜
韮
音
韶
韻
響
頁
頂
頃
項
順
須
頊
頌
預
頑
頒
頓
頗
領
頚
頠
頡
頤
頬
頭
頴
頷
頸
頻
頼
頽
顆
題
額
顎
顒
顓
顔
顕
顗
願
顛
類
顥
顧
顯
顰
風
颪
颯
颱
飄
风
飛
食
飡
飢
飫
飯
飲
飴
飼
飽
飾
餃
餅
餉
養
餌
餐
餓
餘
餞
餡
館
餮
饅
饉
饋
饌
饒
饕
饗
馆
首
馗
香
馥
馨
馬
馭
馮
馳
馴
駁
駄
駅
駆
駈
駐
駒
駕
駝
駟
駱
駿
騎
騏
騒
験
騙
騨
騫
騭
騰
騸
驀
驁
驃
驊
驍
驕
驚
驛
驢
驤
驥
驪
骨
骸
髄
髏
髑
體
高
髙
髣
髦
髪
髭
髯
髴
髷
髻
鬆
鬘
鬚
鬢
鬣
鬨
鬱
鬼
魁
魂
魃
魄
魅
魍
魎
魏
魑
魔
魚
魯
鮎
鮑
鮒
鮟
鮨
鮪
鮫
鮭
鮮
鯉
鯖
鯛
鯨
鯰
鯱
鯵
鰍
鰐
鰓
鰤
鰭
鰯
鰹
鰺
鰻
鰾
鱇
鱈
鱒
鱗
鳥
鳩
鳰
鳳
鳴
鳶
鴇
鴈
鴉
鴎
鴛
鴟
鴦
鴨
鴫
鴻
鵄
鵑
鵜
鵝
鵞
鵠
鵡
鵤
鵬
鵯
鵰
鵲
鵺
鶉
鶏
鶚
鶯
鶴
鶻
鷄
鷗
鷦
鷯
鷲
鷹
鷺
鸕
鸚
鸞
鹵
鹸
鹹
鹽
鹿
麁
麋
麒
麓
麗
麝
麟
麥
麦
麩
麴
麵
麹
麺
麻
麾
麿
黃
黄
黌
黍
黎
黑
黒
黔
黙
黛
點
黟
黨
鼈
鼎
鼓
鼠
鼬
鼻
齊
齋
齎
齟
齢
齣
齧
齬
龍
龐
龔
龕
龗
龙
龜
가
강
개
건
게
겨
경
계
고
공
과
관
광
교
구
국
군
그
근
기
길
김
꼬
꽃
나
남
내
넌
년
노
는
니
다
단
당
대
더
도
동
두
드
들
라
랑
래
레
령
로
록
류
를
리
마
만
말
맥
명
모
무
문
물
미
민
바
박
반
방
배
백
범
베
변
별
보
복
부
비
뽀
사
산
상
생
서
석
선
설
성
세
소
속
송
수
스
승
시
식
신
심
씨
아
안
야
양
어
에
여
역
연
영
예
오
옥
와
왕
용
우
운
울
원
위
유
육
윤
으
은
을
의
이
인
일
입
자
잠
장
재
전
정
제
조
종
주
준
중
즈
지
진
쪽
차
창
천
철
청
최
추
치
코
태
토
트
티
파
편
평
프
하
학
한
해
행
혁
현
형
혜
호
홍
화
황
회
후
훈
희
﨑
﨟
︎
󠄀
##カ
##テ
##リ
##ン
##ブ
##ル
##ク
##ャ
##フ
##ァ
##ロ
##チ
##ョ
##喜
##ラ
##ム
##х
##о
##д
##L
##n
##ィ
##ー
##ア
##a
##r
##d
##e
##R
##E
##C
##T
##O
##l
##o
##i
##ょ
##う
##や
##く
##猫
##留
##げ
##目
##ッ
##ス
##ナ
##イ
##・
##ヤ
##ノ
##シ
##ュ
##v
##g
##し
##B
##S
##V
##c
##P
##3
##2
##0
##6
##4
##ソ
##コ
##y
##さ
##ネ
##オ
##セ
##退
##x
##p
##ド
##レ
##ヴ
##ダ
##ビ
##ト
##い
##z
##り
##絵
##す
##る
##ギ
##ゥ
##タ
##ヘ
##ベ
##ェ
##t
##u
##h
##s
##パ
##グ
##G
##I
##k
##w
##A
##米
##ケ
##谷
##藻
##富
##下
##れ
##m
##b
##バ
##ا
##崎
##切
##内
##D
##ī
##香
##マ
##ゼ
##川
##ウ
##ジ
##つ
##み
##ザ
##ズ
##命
##面
##画
##っ
##艇
##尻
##j
##U
##K
##N
##木
##エ
##て
##先
##頭
##上
##ご
##と
##穂
##信
##き
##な
##ぐ
##ら
##会
##f
##平
##合
##菌
##á
##牟
##田
##W
##よ
##ガ
##陰
##佐
##北
##正
##ぺ
##こ
##継
##ぎ
##è
##q
##重
##の
##座
##二
##分
##康
##送
##ヨ
##キ
##ヒ
##メ
##F
##あ
##わ
##ニ
##知
##多
##サ
##8
##7
##9
##5
##ピ
##ぶ
##た
##そ
##刃
##ハ
##M
##ゲ
##原
##め
##室
##徳
##州
##ボ
##ツ
##石
##忠
##X
##š
##ォ
##Y
##児
##染
##ず
##プ
##é
##ミ
##モ
##夫
##之
##宮
##1
##作
##咬
##斎
##ワ
##撃
##回
##致
##厚
##也
##H
##理
##ゴ
##智
##雄
##ホ
##除
##通
##春
##ば
##女
##燃
##ち
##破
##脳
##落
##糸
##ü
##男
##職
##修
##馬
##核
##ん
##ゅ
##穣
##闕
##は
##ö
##政
##江
##ç
##ú
##デ
##満
##代
##懸
##け
##料
##油
##汽
##ま
##が
##ポ
##葵
##К
##Б
##敗
##固
##期
##散
##直
##炎
##蛇
##寇
##霊
##外
##橋
##経
##ヌ
##祥
##寺
##本
##町
##器
##р
##а
##с
##н
##이
##光
##歌
##痕
##ペ
##国
##Q
##聖
##圧
##口
##尾
##山
##楽
##え
##利
##衆
##洽
##込
##も
##文
##介
##字
##生
##色
##付
##餌
##유
##성
##梨
##太
##郎
##陽
##采
##句
##間
##餓
##鬼
##景
##)
##。
##害
##無
##押
##か
##誠
##船
##ơ
##猿
##ぴ
##蒔
##取
##網
##用
##м
##е
##ь
##べ
##だ
##音
##櫃
##三
##司
##戸
##低
##捨
##頼
##臣
##降
##â
##式
##J
##茂
##官
##替
##解
##費
##鳴
##中
##舞
##進
##む
##住
##地
##脚
##в
##и
##ж
##к
##保
##明
##踊
##食
##추
##다
##機
##笠
##度
##天
##隈
##典
##録
##変
##沢
##せ
##電
##型
##南
##-
##』
##у
##老
##成
##球
##遠
##野
##鷗
##ぞ
##ά
##ρ
##β
##α
##ο
##ς
##心
##伝
##琶
##島
##助
##嶋
##絶
##ι
##ν
##村
##幡
##西
##備
##ゾ
##岳
##葉
##符
##惟
##位
##年
##注
##宏
##床
##数
##구
##案
##決
##秘
##道
##属
##路
##漏
##ぬ
##妹
##幅
##ل
##و
##ه
##ب
##棟
##森
##祭
##盤
##ふ
##根
##ä
##賀
##安
##禄
##欧
##舎
##息
##美
##子
##病
##じ
##ह
##ा
##म
##ो
##ग
##्
##न
##踞
##記
##制
##竜
##昭
##輝
##出
##帯
##ß
##途
##装
##井
##娘
##水
##偉
##願
##ざ
##流
##物
##呂
##焚
##域
##箱
##倉
##突
##々
##Z
##竹
##学
##ư
##ớ
##悪
##宙
##史
##飛
##忙
##烈
##義
##立
##陣
##ر
##س
##ی
##業
##印
##円
##品
##塩
##編
##з
##管
##鳥
##居
##鯨
##将
##ف
##ي
##ص
##ゃ
##び
##ひ
##で
##〜
##図
##澄
##岸
##輸
##事
##η
##κ
##馥
##里
##沙
##羽
##治
##賓
##晴
##澤
##ώ
##т
##ч
##ы
##й
##埼
##勝
##行
##虫
##土
##貴
##家
##初
##射
##志
##身
##笹
##拳
##壁
##民
##鹿
##泉
##伏
##浜
##я
##脇
##販
##次
##有
##徒
##苗
##名
##垣
##毛
##무
##憲
##攸
##藤
##丸
##狼
##衛
##寛
##倒
##例
##権
##矧
##õ
##見
##気
##迪
##主
##仙
##仁
##湯
##健
##報
##盗
##ど
##ろ
##輪
##п
##闘
##軍
##襟
##洋
##言
##û
##組
##入
##浦
##能
##真
##ت
##ك
##چ
##ى
##(
##=
##「
##膜
##λ
##龍
##語
##液
##手
##菜
##黄
##宣
##剌
##爾
##肉
##г
##師
##鱒
##ユ
##影
##父
##狩
##請
##情
##阪
##圏
##味
##略
##계
##論
##荷
##永
##ò
##隆
##樹
##哉
##磨
##放
##爆
##穴
##車
##刀
##風
##採
##涼
##覚
##용
##강
##郷
##察
##砕
##返
##場
##九
##鎮
##存
##帛
##月
##×
##づ
##俣
##宜
##然
##虚
##侮
##市
##卵
##河
##王
##一
##桜
##功
##ū
##ā
##ᆞ
##園
##幹
##奪
##望
##墓
##畜
##白
##引
##布
##恩
##育
##ね
##東
##埋
##ו
##נ
##ג
##י
##ר
##眼
##哀
##相
##ụ
##暦
##ゆ
##л
##ц
##氏
##斑
##海
##者
##脾
##右
##門
##算
##営
##納
##艦
##那
##ゝ
##塚
##に
##奈
##恵
##空
##善
##坊
##得
##片
##華
##雅
##準
##務
##波
##転
##辱
##咲
##失
##汁
##花
##習
##종
##남
##지
##방
##析
##秀
##ش
##ن
##大
##聞
##壇
##所
##須
##祷
##列
##玉
##ぱ
##親
##お
##広
##駆
##"
##尊
##神
##殺
##碁
##亭
##実
##兵
##干
##骨
##匠
##Ž
##厄
##|
##○
##】
##」
##針
##派
##応
##د
##緩
##緯
##Н
##О
##А
##З
##Э
##矢
##閔
##岡
##其
##着
##潰
##哮
##栓
##称
##粉
##長
##禹
##人
##果
##敏
##純
##打
##두
##부
##教
##魔
##体
##高
##亀
##査
##動
##ד
##ב
##א
##犬
##彦
##苓
##乃
##集
##孝
##久
##趣
##왕
##전
##頃
##\
##渡
##宗
##基
##ó
##世
##訂
##紀
##凍
##離
##選
##渓
##라
##산
##í
##買
##部
##欲
##株
##豊
##閑
##造
##林
##胴
##逸
##酒
##掛
##和
##堤
##棒
##瑞
##敷
##ぜ
##黒
##Р
##僚
##断
##γ
##τ
##έ
##結
##à
##醤
##蝦
##魚
##午
##杯
##刈
##諭
##深
##蝶
##掃
##置
##狐
##鵲
##芸
##ğ
##ぽ
##季
##受
##増
##屋
##絡
##削
##瓏
##表
##기
##妃
##雲
##撻
##바
##리
##弥
##訳
##ė
##労
##妻
##抜
##八
##皿
##意
##負
##寄
##養
##寒
##鋒
##鍋
##量
##禍
##層
##慕
##五
##雪
##ш
##起
##庵
##蘭
##階
##具
##戻
##廳
##縁
##堂
##資
##酷
##ı
##ㇷ
##砲
##θ
##ε
##;
##寿
##服
##過
##稿
##б
##端
##来
##貢
##首
##忍
##輿
##公
##진
##군
##材
##照
##і
##牧
##力
##院
##容
##梅
##充
##幸
##跡
##商
##筆
##今
##躇
##種
##帆
##火
##抄
##柑
##塗
##換
##遊
##叙
##ヶ
##煮
##議
##声
##牛
##全
##局
##台
##揃
##ą
##帝
##写
##筋
##婚
##芝
##泊
##添
##叡
##溝
##璋
##盛
##辺
##顧
##積
##裔
##祀
##ほ
##燧
##援
##読
##σ
##酸
##腸
##祢
##殿
##暇
##武
##乳
##潮
##笑
##松
##ぼ
##配
##臭
##定
##興
##始
##荼
##?
##栄
##紘
##停
##等
##日
##号
##주
##底
##ヲ
##、
##員
##亜
##秋
##詰
##愚
##藩
##弘
##甲
##揚
##狂
##考
##歴
##紗
##昧
##怒
##捕
##加
##駅
##欠
##欄
##吊
##討
##歯
##歩
##冬
##法
##筏
##广
##星
##甫
##極
##賃
##否
##財
##━
##┓
##足
##当
##規
##週
##悶
##帰
##盧
##騎
##書
##尽
##憤
##緒
##死
##傷
##吉
##ψ
##尼
##ة
##却
##胆
##社
##은
##영
##残
##塔
##示
##椅
##정
##배
##ุ
##ม
##า
##ร
##ท
##อ
##ง
##ق
##薬
##軌
##.
##性
##籤
##마
##﨑
##眸
##触
##雨
##腐
##아
##姫
##煙
##導
##威
##府
##漬
##巻
##嗣
##別
##千
##遣
##不
##象
##耶
##瀬
##改
##시
##話
##房
##己
##問
##ë
##束
##暮
##毅
##則
##兄
##衣
##比
##古
##軒
##績
##滅
##ṭ
##乱
##側
##하
##農
##我
##阿
##羅
##斯
##福
##術
##邸
##差
##詞
##常
##ð
##校
##士
##縄
##旧
##県
##/
##交
##弧
##飯
##枠
##夕
##延
##君
##十
##『
##ñ
##方
##向
##撒
##小
##止
##ô
##琳
##周
##剣
##答
##袋
##舟
##津
##元
##î
##ύ
##μ
##伯
##倫
##談
##輔
##奥
##ё
##仏
##守
##共
##価
##角
##青
##鷺
##痘
##嶺
##感
##連
##瀝
##講
##視
##錠
##蔵
##闇
##丹
##塁
##百
##線
##去
##状
##爲
##晃
##縣
##선
##재
##砂
##区
##章
##ṣ
##伐
##云
##戦
##眉
##裁
##姿
##級
##瓶
##参
##素
##認
##訊
##技
##條
##巡
##医
##顕
##霞
##池
##易
##辣
##摘
##髪
##腹
##ה
##胞
##瞭
##ή
##帽
##可
##顎
##努
##遍
##餅
##卑
##館
##貞
##関
##若
##草
##준
##現
##駒
##敬
##昔
##像
##倍
##良
##熊
##勢
##調
##佳
##占
##皮
##崇
##伴
##혜
##후
##試
##獺
##点
##段
##皇
##鼠
##脈
##淳
##越
##金
##挫
##渦
##埔
##対
##漠
##葬
##仲
##遅
##鱈
##吾
##要
##ក
##旦
##売
##聴
##申
##諜
##蓄
##灯
##刺
##П
##ح
##م
##擬
##幕
##睺
##礼
##胸
##開
##範
##乗
##濠
##弓
##処
##験
##割
##ę
##識
##岐
##耳
##嘉
##ա
##ր
##ե
##ն
##霜
##أ
##囲
##城
##締
##ø
##伸
##悛
##偏
##籍
##鏡
##細
##銀
##霖
##還
##청
##肥
##執
##委
##ō
##標
##僧
##癌
##謙
##才
##,
##尹
##都
##惑
##胤
##速
##刷
##邯
##時
##役
##説
##ַ
##ש
##ָ
##ּ
##ׁ
##מ
##ִ
##ם
##耕
##癒
##弱
##版
##{
##庸
##蔭
##箭
##도
##接
##衡
##မ
##ာ
##ျ
##ိ
##ု
##း
##တ
##်
##ေ
##席
##猟
##柄
##雁
##膳
##未
##夏
##由
##喪
##麿
##証
##化
##又
##ड
##़
##刁
##酌
##了
##前
##+
##祖
##想
##透
##四
##紋
##温
##工
##呑
##昱
##順
##ع
##織
##姓
##往
##淡
##형
##疇
##俊
##総
##彩
##及
##ã
##套
##滝
##授
##没
##鎌
##沸
##血
##桶
##辛
##!
##危
##岩
##隊
##爵
##使
##幌
##儀
##左
##鶴
##卒
##莉
##慶
##湖
##ぉ
##ợ
##闔
##稲
##滸
##眠
##払
##མ
##ས
##་
##ང
##ར
##ོ
##ཁ
##ག
##半
##酋
##滉
##鷲
##豆
##拾
##隔
##構
##ヅ
##ध
##र
##त
##व
##胚
##朝
##潔
##縛
##好
##釜
##友
##賞
##楼
##似
##团
##植
##患
##ï
##机
##態
##麗
##母
##睦
##板
##雛
##枝
##産
##亡
##蓮
##統
##襲
##塊
##寸
##難
##毫
##新
##曲
##妙
##ल
##ख
##柿
##給
##萎
##済
##辞
##ș
##英
##朽
##ヂ
##便
##э
##紙
##喰
##吟
##清
##至
##蜂
##鮑
##傑
##耗
##末
##形
##仮
##峪
##露
##δ
##祠
##宍
##丈
##प
##獄
##呈
##迫
##[
##維
##京
##条
##群
##瞳
##桃
##節
##蹄
##籠
##廟
##指
##折
##翫
##製
##“
##”
##曳
##袴
##嗾
##況
##萬
##侶
##尉
##:
##榮
##番
##弾
##汚
##ி
##க
##்
##ர
##ம
##ச
##祐
##鉄
##攻
##罰
##特
##七
##肱
##滓
##快
##趾
##潜
##교
##조
##단
##益
##央
##裕
##詔
##建
##魯
##茎
##串
##淫
##許
##唄
##持
##坂
##郁
##六
##邦
##楨
##彫
##ζ
##以
##紐
##釣
##思
##寧
##因
##보
##嫌
##振
##違
##矩
##梶
##窓
##を
##琴
##]
##巨
##摩
##港
##独
##ć
##吻
##ز
##ŭ
##翔
##界
##儲
##芳
##น
##ซ
##ี
##่
##垢
##繁
##店
##胡
##ן
##吏
##仔
##旗
##령
##역
##晋
##偶
##渾
##賛
##柳
##必
##早
##ヱ
##額
##茶
##諦
##厥
##何
##荘
##痛
##宝
##鉤
##棠
##貫
##詠
##壽
##沖
##閥
##亨
##雇
##自
##椒
##更
##腕
##ê
##源
##ф
##鉱
##燈
##ᠠ
##ᠶ
##ᠢ
##ᠰ
##ᠩ
##訴
##刹
##尿
##牝
##縮
##æ
##蓋
##稷
##遁
##唐
##領
##翅
##炭
##頂
##疵
##團
##繰
##密
##へ
##糟
##扼
##撓
##É
##諸
##斐
##封
##梓
##麦
##裂
##少
##率
##麓
##鞅
##隅
##濱
##郊
##壺
##煎
##ᡝ
##ᡠ
##疾
##腔
##課
##遷
##韻
##駄
##宴
##張
##ί
##賢
##借
##償
##齢
##訪
##終
##泰
##在
##洞
##畦
##譲
##腿
##哲
##畑
##墨
##朗
##蘊
##肩
##顔
##烏
##丘
##律
##貝
##悲
##毒
##待
##署
##反
##協
##墟
##奴
##鎔
##洲
##ु
##ब
##軽
##超
##孫
##錫
##尺
##抗
##菓
##磁
##診
##殻
##ē
##閲
##巣
##ό
##繕
##刑
##螂
##練
##치
##해
##ì
##經
##杖
##境
##架
##震
##蚌
##于
##爽
##勃
##屏
##陸
##鉋
##恭
##의
##학
##研
##脂
##系
##精
##陵
##悩
##誣
##梁
##樺
##壹
##彌
##迎
##濃
##唱
##后
##畔
##傘
##惹
##夢
##弁
##π
##ω
##剤
##彡
##泥
##曹
##楷
##札
##程
##省
##鑑
##支
##輩
##瑳
##우
##┛
##珥
##晏
##粒
##č
##悦
##薄
##異
##誓
##客
##麒
##ط
##ֶ
##閉
##桓
##険
##侠
##鴉
##å
##争
##皆
##麟
##伊
##嚴
##溜
##蹟
##狸
##胎
##計
##題
##넌
##ő
##股
##禅
##迷
##珪
##한
##중
##國
##凌
##鈴
##―
##'
##廉
##様
##ˊ
##描
##蒙
##晩
##晁
##做
##韓
##叉
##掻
##際
##責
##ל
##凄
##毘
##測
##醒
##芽
##税
##勳
##優
##희
##博
##評
##屍
##珉
##奠
##桁
##巳
##亮
##峨
##覧
##壊
##夜
##蔽
##棺
##街
##И
##Т
##Е
##С
##Й
##腰
##ぢ
##演
##ล
##เ
##็
##ก
##์
##走
##勲
##ि
##श
##刊
##脱
##沼
##免
##ờ
##赤
##運
##尸
##峰
##渣
##念
##鸞
##廃
##ต
##ส
##ห
##ิ
##บ
##ด
##強
##獣
##崩
##妨
##質
##奏
##後
##追
##柏
##奨
##唇
##冶
##⇒
##ệ
##雀
##与
##為
##餡
##曽
##冠
##帙
##概
##飼
##芷
##壱
##泳
##鉢
##錯
##而
##洗
##<
##暗
##廷
##迭
##窪
##兼
##ᄏ
##銭
##У
##並
##殴
##栖
##消
##崗
##伽
##吹
##堀
##賜
##紳
##叔
##達
##急
##摺
##ǎ
##ù
##철
##萊
##縞
##鐵
##壕
##獲
##υ
##擦
##肆
##防
##娥
##拠
##硬
##苦
##候
##臼
##挙
##嗟
##舗
##خ
##飾
##ู
##斗
##ː
##鋭
##頸
##臘
##晶
##甕
##槌
##刻
##庭
##冷
##癲
##喝
##菩
##提
##同
##陶
##令
##怖
##璃
##ũ
##ĩ
##症
##昂
##乙
##祓
##을
##浚
##団
##호
##任
##ް
##柔
##捻
##류
##悳
##扇
##述
##随
##當
##郡
##湾
##叢
##篭
##峴
##票
##響
##収
##謝
##В
##発
##歳
##暢
##休
##揄
##鮭
##逢
##嶽
##>
##革
##瀞
##ᡞ
##ᡤ
##胃
##匿
##創
##粟
##卓
##允
##窯
##ئ
##đ
##ე
##ქ
##ს
##ი
##კ
##ო
##ნ
##薩
##綱
##宅
##淵
##漿
##焼
##桑
##剖
##翼
##즈
##禁
##倶
##熟
##詩
##巾
##ट
##ी
##腺
##杵
##秦
##設
##虐
##投
##‘
##稚
##灰
##箕
##&
##湊
##戒
##畠
##従
##傾
##他
##ぷ
##梗
##珠
##语
##乾
##식
##회
##사
##邑
##ぇ
##紫
##昌
##와
##로
##甘
##圍
##緘
##雷
##厳
##隣
##掌
##茅
##ń
##ศ
##ช
##โ
##観
##−
##幻
##廬
##炉
##怨
##ṇ
##騰
##岱
##槙
##昇
##姉
##諡
##稜
##狭
##約
##學
##炙
##苑
##登
##≥
##崖
##鳳
##映
##柱
##災
##誦
##爪
##握
##牌
##譜
##蕗
##錦
##遽
##ṅ
##鐙
##載
##菁
##宇
##馴
##兎
##勧
##戚
##閣
##滔
##ố
##婦
##豪
##硫
##託
##被
##完
##著
##簡
##施
##ł
##族
##ぁ
##별
##대
##肌
##探
##緑
##嚢
##彰
##葺
##舘
##蜜
##廻
##니
##嵐
##募
##ث
##殊
##閤
##麻
##泣
##ř
##`
##宿
##桐
##ṛ
##銘
##丁
##濁
##洪
##炊
##개
##혁
##忽
##券
##罠
##芋
##鵑
##嵩
##索
##棲
##潟
##歪
##慄
##魂
##戯
##鶏
##綴
##憑
##暑
##ว
##้
##ไ
##辻
##余
##拒
##窟
##畝
##綜
##届
##浄
##勒
##蘇
##遇
##羊
##栽
##棚
##彬
##陳
##ʒ
##천
##운
##동
##장
##蔡
##煕
##щ
##ʂ
##ɛ
##騒
##撫
##憊
##ུ
##པ
##粥
##ა
##ტ
##რ
##პ
##駝
##碍
##麺
##盆
##ㄧ
##勘
##環
##賠
##淮
##掘
##酉
##侗
##屈
##渕
##고
##叫
##膿
##汐
##鞭
##輳
##邉
##愕
##杏
##静
##続
##베
##茫
##χ
##ย
##航
##勇
##釈
##斬
##暁
##袖
##舌
##ั
##ญ
##ํ
##จ
##ค
##簾
##肴
##糧
##洙
##ុ
##毎
##秒
##स
##饉
##桂
##燵
##遂
##孔
##錚
##鷹
##丞
##墜
##艶
##ɫ
##纏
##仄
##圀
##국
##수
##展
##希
##呼
##蹠
##党
##凜
##涯
##ব
##া
##ন
##্
##দ
##衝
##盪
##雑
##昨
##逆
##峯
##距
##婿
##携
##燭
##瑪
##楯
##ป
##枯
##歙
##荒
##抱
##紅
##翠
##ắ
##筈
##坪
##พ
##樋
##磯
##疱
##漑
##跏
##敵
##گ
##啼
##栗
##ş
##洩
##赦
##楚
##誡
##浴
##奇
##竺
##徨
##壮
##救
##陀
##佛
##箔
##苔
##庄
##慢
##減
##謀
##悼
##杉
##弼
##零
##逐
##荻
##물
##第
##求
##纂
##塵
##錆
##損
##蟻
##単
##ک
##碑
##盟
##ă
##ю
##凸
##謡
##聚
##鼻
##故
##謬
##篇
##縦
##融
##槍
##峻
##磐
##痢
##茲
##인
##梱
##癇
##♠
##♡
##♣
##粕
##囚
##ξ
##仕
##埠
##ả
##哈
##朱
##熹
##霧
##巴
##愈
##兜
##舶
##柴
##衰
##枕
##광
##모
##玄
##啓
##스
##트
##件
##痴
##醍
##醐
##藁
##厘
##ฟ
##篠
##蛙
##疽
##鈷
##冑
##苛
##滞
##促
##癖
##ḍ
##ṃ
##格
##滑
##菊
##徹
##화
##陝
##筒
##旭
##兆
##鋪
##稱
##債
##征
##棄
##ʏ
##̯
##類
##堅
##瑠
##婆
##旨
##包
##復
##帳
##避
##狗
##煌
##牙
##來
##璧
##노
##藍
##մ
##М
##慣
##द
##圳
##拭
##升
##ъ
##ס
##篤
##喩
##盒
##熱
##紹
##玲
##科
##疹
##普
##麩
##暴
##僑
##ˋ
##ட
##ா
##ய
##ன
##က
##﨟
##ɔ
##働
##야
##弄
##吃
##祇
##坐
##溶
##賊
##睡
##幣
##湿
##垂
##བ
##ད
##ན
##འ
##ྲ
##ི
##ེ
##ת
##漁
##惜
##梯
##恣
##熙
##寡
##皐
##裏
##璽
##移
##廊
##瀾
##寝
##恋
##浩
##侵
##壩
##粋
##髄
##溢
##관
##儒
##罪
##瓢
##당
##粛
##訓
##旬
##汪
##褒
##电
##裳
##ج
##飲
##策
##絹
##亞
##短
##鐘
##猛
##躁
##豚
##庁
##糊
##輯
##臥
##扶
##ý
##肋
##ᠣ
##ᠯ
##稀
##庫
##옥
##여
##어
##연
##승
##ạ
##克
##창
##沫
##鞘
##ɣ
##ə
##捷
##綿
##瑛
##悟
##Г
##塾
##拡
##蝋
##鯉
##瀨
##冀
##堵
##旅
##나
##→
##媒
##蓑
##彙
##劇
##ɡ
##乏
##ᠪ
##ᠤ
##渇
##∼
##ˈ
##鉉
##근
##渟
##蜘
##蛛
##衍
##槽
##ְ
##ֹ
##현
##황
##弟
##叩
##撮
##ປ
##銃
##汶
##贅
##躬
##姦
##臨
##倹
##値
##씨
##塞
##민
##邊
##笛
##袍
##妄
##躯
##裸
##錬
##箸
##∞
##甑
##隻
##羲
##窩
##े
##울
##讃
##判
##ḥ
##供
##模
##峠
##莢
##万
##怠
##ě
##缶
##限
##需
##渋
##築
##糖
##横
##坑
##焦
##祝
##扱
##상
##ʁ
##侍
##드
##只
##茹
##冰
##憂
##ž
##賎
##是
##霓
##承
##漢
##湛
##鼓
##丕
##護
##童
##邪
##蕎
##ј
##障
##래
##晒
##乞
##襷
##篋
##恥
##租
##督
##肘
##齬
##문
##翁
##비
##행
##拙
##魁
##奕
##的
##諾
##拝
##稼
##浸
##그
##ㇱ
##场
##近
##汗
##미
##~
##詣
##萌
##麹
##제
##黙
##氷
##^
##♪
##遼
##茸
##는
##ぅ
##∗
##賂
##戈
##簀
##諱
##嬬
##効
##ț
##酔
##ế
##ɑ
##̃
##孤
##發
##鋳
##兮
##痒
##狄
##琉
##隠
##უ
##ბ
##ʃ
##ˌ
##械
##椿
##什
##愛
##拍
##貨
##脹
##鬱
##燎
##嚼
##御
##剥
##咄
##蕾
##【
##宰
##夷
##鮮
##宵
##燕
##憎
##漲
##俗
##衿
##桧
##董
##灣
##弦
##欣
##戴
##培
##鎖
##懐
##剰
##鐸
##予
##洛
##ע
##蒲
##尖
##踏
##鳩
##蔓
##飡
##帥
##径
##ข
##汰
##湘
##畿
##珍
##舒
##↑
##銅
##鈍
##綬
##靖
##枚
##誇
##註
##꼬
##就
##帖
##猩
##蚕
##糠
##貸
##逃
##暖
##丶
##誉
##銑
##漉
##站
##藝
##竟
##魅
##蕊
##捏
##φ
##幢
##虜
##壓
##巌
##附
##址
##肢
##壌
##凶
##碧
##巫
##匱
##郭
##竿
##咳
##鞄
##裡
##背
##ţ
##庇
##酵
##副
##杼
##補
##如
##鵬
##敦
##幟
##轟
##ś
##慨
##釧
##ᡥ
##楠
##瘡
##撼
##원
##樟
##并
##漕
##轉
##到
##覇
##縫
##鑽
##芒
##थ
##渭
##賤
##凛
##傳
##竈
##會
##励
##煥
##寂
##矣
##鉛
##眩
##猷
##ị
##企
##錨
##徽
##呉
##諧
##菱
##ў
##ლ
##დ
##ậ
##慧
##세
##關
##卸
##此
##禰
##膝
##戌
##瓦
##〔
##禎
##劣
##靴
##吸
##軻
##療
##實
##惠
##臈
##慈
##樽
##衙
##絲
##萩
##覆
##屓
##斉
##浅
##ǔ
##蝿
##誼
##於
##鞋
##ヮ
##陘
##្
##រ
##ស
##遺
##평
##薦
##甌
##琨
##서
##篆
##盲
##蛋
##祚
##莽
##洮
##混
##喬
##潭
##汀
##褐
##경
##ո
##ղ
##յ
##勤
##蒸
##畳
##碇
##爛
##ү
##斂
##翰
##唯
##璇
##苅
##ᡳ
##廓
##轅
##汲
##脆
##반
##鈞
##圓
##柵
##審
##確
##警
##ं
##腫
##辰
##ֵ
##括
##謌
##寓
##ぃ
##髭
##澹
##貧
##頓
##ង
##巒
##ǐ
##班
##င
##$
##臺
##蕃
##虞
##黎
##ज
##僕
##検
##鎬
##榔
##彼
##്
##വ
##泌
##貌
##李
##即
##櫻
##ט
##ộ
##말
##穏
##圭
##灘
##葛
##ヰ
##桿
##Ü
##Ö
##ะ
##賁
##薔
##薇
##戔
##嗚
##क
##控
##悠
##溟
##逓
##*
##牒
##蠱
##棘
##动
##粤
##œ
##唆
##嬰
##軸
##婁
##娟
##寮
##猾
##准
##幽
##鰭
##闐
##͡
##석
##饌
##耽
##閃
##徴
##揖
##윤
##壷
##瘻
##隙
##浪
##Л
##逅
##ា
##ន
##ជ
##ដ
##侯
##皓
##觴
##活
##玩
##馆
##閘
##非
##殖
##鍬
##絞
##碓
##唖
##ㇺ
##堰
##両
##ז
##გ
##ძ
##釗
##奉
##呰
##呀
##卿
##鄲
##俠
##筵
##廣
##ヵ
##奭
##剛
##埜
##渉
##釉
##芯
##誨
##ћ
##眞
##亥
##恐
##賦
##謫
##妊
##礁
##邏
##諂
##斧
##涙
##瑩
##节
##依
##鑢
##滋
##彅
##妬
##ɕ
##ᠲ
##ᠭ
##俵
##將
##訛
##整
##蹴
##監
##※
##歇
##_
##∧
##俑
##焔
##•
##萇
##絆
##椎
##捌
##Ø
##恒
##獪
##對
##激
##稔
##鵡
##}
##〕
##〉
##》
##〟
##’
##曝
##Δ
##Σ
##Ε
##Ι
##Α
##舵
##沈
##ǫ
##杭
##佑
##瘍
##枳
##嫁
##尚
##頬
##鴻
##軾
##砥
##礫
##朴
##에
##項
##牢
##腋
##萄
##曾
##槻
##徭
##挟
##笵
##Я
##怪
##誌
##凪
##鉾
##雉
##瑯
##厭
##√
##ח
##蛍
##憐
##德
##만
##랑
##屑
##悌
##媛
##冊
##祗
##紡
##臂
##貯
##ɪ
##惨
##涎
##恕
##愷
##招
##癬
##ť
##苧
##謂
##燗
##偽
##雞
##稽
##疋
##摯
##暎
##訟
##醸
##鴨
##迦
##腎
##篥
##ŋ
##捜
##徙
##邀
##渠
##ゞ
##撰
##臓
##嘆
##편
##把
##鑿
##오
##炯
##們
##娼
##揺
##奸
##奮
##縷
##蝕
##個
##더
##専
##坦
##捗
##埒
##侃
##諍
##含
##播
##碾
##蹊
##寅
##鍵
##妖
##肺
##箍
##衾
##鋲
##恨
##च
##य
##豫
##乎
##צ
##ק
##籬
##ồ
##沿
##罐
##屯
##Ф
##昶
##鳶
##潤
##ვ
##ɨ
##토
##蝗
##신
##嬛
##籾
##澗
##磋
##ї
##騫
##簿
##忌
##覺
##堪
##序
##紇
##窒
##瓊
##拶
##苣
##困
##圖
##ใ
##鬘
##硝
##ภ
##櫓
##邇
##안
##碩
##斤
##无
##淄
##梧
##ɴ
##巖
##ɲ
##究
##粲
##紺
##杞
##敢
##Ō
##盾
##該
##痍
##既
##ż
##鞍
##위
##担
##拓
##竄
##沃
##嶌
##യ
##凡
##繍
##蠕
##淀
##廠
##疫
##昴
##墳
##穆
##跋
##̈
##ễ
##卯
##鋼
##慮
##厨
##瑚
##聲
##غ
##悸
##ි
##ස
##ා
##න
##ය
##ක
##微
##峅
##豨
##כ
##咫
##享
##宛
##孺
##告
##恂
##ヽ
##攣
##愁
##罫
##歿
##焉
##橘
##猪
##Д
##奎
##尋
##丼
##黍
##朋
##歓
##嵌
##俸
##豹
##曇
##頌
##傭
##囃
##티
##생
##疆
##꽃
##Ш
##鱗
##迅
##穹
##자
##抵
##杓
##蔗
##塘
##厲
##涜
##楓
##게
##痺
##ᠨ
##訥
##碗
##淘
##舫
##聾
##炮
##扉
##滴
##乂
##筐
##鼎
##魃
##〆
##勉
##를
##萱
##건
##諏
##嘴
##紛
##⟨
##甚
##曜
##소
##糾
##步
##惚
##嵜
##犯
##觀
##搗
##蠣
##鎚
##禽
##蛉
##戮
##擲
##虎
##峡
##祉
##„
##鎧
##溪
##献
##կ
##գ
##ի
##嘱
##枇
##杷
##匹
##@
##孚
##箋
##燥
##莘
##泗
##芦
##挽
##≤
##捲
##某
##տ
##瑰
##撲
##撞
##瀧
##絨
##俳
##笥
##噴
##撈
##謗
##牘
##双
##托
##陥
##餉
##舅
##溺
##伶
##毀
##矯
##ɾ
##痩
##盡
##緬
##圃
##Ú
##蓉
##据
##հ
##ք
##涛
##訣
##適
##讐
##儁
##冨
##叟
##剋
##昼
##ᡧ
##வ
##矛
##峙
##轢
##박
##齋
##榴
##搾
##耐
##棋
##沛
##屁
##几
##烙
##哨
##截
##懃
##鄙
##菟
##阜
##들
##昏
##茄
##吐
##복
##র
##ম
##閇
##濤
##數
##酢
##櫛
##宋
##瑙
##凱
##嫡
##堡
##均
##澠
##惰
##ษ
##濟
##粧
##厩
##遵
##태
##娃
##鑚
##填
##仗
##孕
##款
##娑
##馨
##瞰
##瀛
##瑤
##揮
##ւ
##旋
##琦
##綾
##裾
##∪
##看
##ถ
##龕
##駕
##珊
##耆
##醂
##禦
##්
##ත
##ර
##堯
##妓
##菅
##係
##鵄
##瀑
##棹
##擢
##猴
##拔
##疏
##邨
##瞻
##蛾
##њ
##芥
##幾
##ณ
##欽
##陞
##일
##喉
##貿
##奘
##叛
##誑
##燼
##桟
##萍
##嵯
##弊
##痔
##侭
##杜
##櫚
##疎
##肪
###
##礎
##册
##涌
##罵
##般
##斜
##樫
##雫
##ض
##刎
##菰
##詳
##년
##แ
##ื
##氣
##த
##ு
##伍
##芮
##ʔ
##掲
##פ
##偃
##浮
##假
##襄
##再
##迹
##幄
##堝
##으
##游
##勅
##˩
##闊
##肛
##请
##遏
##臆
##粘
##隷
##穀
##猊
##공
##ĕ
##桝
##양
##渺
##頤
##抹
##聰
##☆
##侑
##淹
##縋
##轍
##蟹
##과
##·
##淑
##劭
##奔
##燮
##岬
##陋
##鵜
##呪
##冲
##©
##狙
##衞
##掴
##Ц
##坤
##捺
##眷
##ᠷ
##鞴
##脩
##埃
##冥
##枢
##塑
##揆
##皋
##Ó
##疲
##沅
##瞼
##癪
##弗
##譴
##酊
##飴
##尭
##瘤
##錮
##膏
##盈
##袈
##裟
##累
##贖
##駐
##乘
##藏
##槓
##吠
##鏑
##郞
##靂
##艸
##가
##შ
##罕
##洒
##棉
##凧
##跳
##鴈
##轄
##筑
##賈
##ᠮ
##膚
##抑
##沌
##육
##ფ
##嘗
##ゑ
##釘
##伎
##忘
##拵
##晞
##ྱ
##།
##葎
##吼
##邃
##ǒ
##프
##遜
##ź
##韶
##尔
##脛
##琮
##沐
##懲
##魄
##심
##鍛
##躍
##̰
##汜
##명
##길
##菖
##თ
##傅
##肯
##稟
##攀
##繭
##咎
##嬪
##葱
##薗
##驤
##戟
##蔀
##樂
##靡
##冒
##哩
##瀉
##拌
##蛮
##訢
##埴
##賑
##髯
##劫
##譚
##薫
##凰
##檜
##悴
##飽
##厦
##褌
##呆
##倚
##墅
##涿
##禧
##恪
##謨
##蕩
##萃
##葭
##鬚
##彊
##欒
##鯱
##誅
##證
##檎
##碌
##ᠡ
##佗
##召
##婉
##ប
##雎
##棵
##錐
##訌
##蛎
##昉
##蚊
##諺
##籃
##憬
##缺
##ᠵ
##毯
##勿
##蘂
##庶
##भ
##莱
##东
##濡
##攫
##塀
##朧
##耘
##儘
##蒼
##瑣
##闥
##레
##賽
##疑
##珂
##參
##私
##籌
##嗜
##虔
##ỹ
##澳
##仇
##鱇
##逵
##泡
##搬
##柘
##姑
##⋯
##鐡
##恤
##繊
##稠
##梢
##舷
##懼
##旛
##鏃
##笏
##범
##殆
##摸
##瞥
##檀
##მ
##催
##ཚ
##ཤ
##禮
##ธ
##酪
##尤
##楊
##ゐ
##虹
##氈
##褚
##속
##髏
##ལ
##园
##枡
##毬
##蒡
##仰
##盃
##▽
##訶
##鈎
##琅
##沂
##箒
##憫
##訝
##蛹
##鮒
##舜
##匐
##頚
##ầ
##擁
##骸
##錘
##掠
##鰐
##梠
##拱
##秩
##弉
##冉
##瓜
##措
##捐
##弛
##鋸
##徐
##珀
##匡
##匪
##屠
##蹙
##繋
##溥
##±
##妾
##叭
##喆
##پ
##ḷ
##卜
##弐
##騨
##咽
##瑾
##暉
##ظ
##礪
##岑
##戎
##髷
##箇
##ण
##̞
##媚
##弔
##贈
##●
##拉
##箚
##應
##Í
##鞮
##遭
##ɒ
##詈
##莞
##駈
##ս
##漂
##噌
##Ζ
##耀
##鞜
##琪
##礦
##郵
##糞
##旻
##唾
##爺
##鈿
##犀
##兒
##丑
##燐
##絣
##凝
##姥
##魎
##曙
##예
##杙
##蘿
##億
##排
##劾
##蔑
##Ο
##薪
##巧
##ŏ
##昆
##賣
##堆
##凹
##楡
##ண
##掣
##噺
##茨
##綻
##択
##霆
##琲
##秣
##闍
##雌
##浙
##瀆
##袢
##瞬
##複
##蕉
##鐐
##ᠴ
##亙
##Ä
##⚫
##欅
##甥
##藪
##肖
##墾
##哭
##躙
##蟄
##炸
##蕨
##宸
##這
##胥
##絃
##樵
##鮨
##ු
##槃
##汎
##軛
##筌
##曄
##내
##蜴
##鹵
##송
##匂
##陂
##秤
##ủ
##آ
##噪
##悉
##緻
##祁
##駿
##佬
##蒜
##灸
##咋
##喫
##曁
##臚
##湍
##ម
##冴
##誤
##徊
##禺
##鶻
##操
##珏
##芹
##羯
##詮
##哺
##卦
##蜀
##懿
##Š
##挿
##顗
##稙
##踪
##詛
##寶
##殷
##痰
##襴
##입
##최
##堺
##ʊ
##嗇
##蒻
##燁
##幇
##ᠸ
##聟
##窄
##嚇
##馗
##倭
##韮
##록
##狽
##軟
##檮
##躾
##濯
##蒋
##侘
##諫
##籟
##髴
##轤
##ฉ
##謔
##咸
##鰯
##頻
##攬
##渫
##魏
##豺
##嘲
##酬
##゙
##縻
##肝
##ព
##栩
##姪
##蛤
##邵
##膨
##緊
##嶼
##ө
##慌
##贋
##濫
##駱
##哥
##砦
##併
##賚
##鏞
##顯
##誕
##璞
##跪
##悰
##循
##宕
##霄
##榑
##阻
##俘
##瑜
##瑟
##憶
##傍
##廈
##攷
##ᄅ
##朔
##侈
##腑
##擾
##繩
##〈
##剃
##搭
##鰓
##晰
##函
##襦
##鴎
##喚
##續
##皎
##衫
##戩
##ම
##弖
##鋏
##赫
##羹
##Ч
##戍
##驛
##盞
##契
##蓬
##儺
##櫨
##埕
##蝎
##噲
##謁
##廼
##冤
##塢
##薙
##渚
##牆
##嘩
##縅
##逝
##倖
##緋
##漫
##咤
##莫
##鷯
##寵
##鯛
##濘
##́
##撥
##차
##菴
##苺
##冕
##코
##噛
##冽
##藺
##贛
##剪
##朶
##隨
##█
##韜
##楫
##墻
##奢
##鸚
##啄
##赭
##磊
##衷
##暠
##摂
##蕭
##履
##傕
##輓
##蘋
##邕
##椋
##噶
##파
##閏
##聯
##賄
##惣
##頒
##幼
##驢
##晟
##藷
##弩
##縒
##ʎ
##已
##芻
##훈
##蕪
##咩
##鬨
##筍
##灌
##柯
##謐
##敖
##彪
##襖
##儡
##槨
##嬌
##互
##獅
##蝠
##醜
##旁
##ჯ
##枋
##薨
##儂
##芬
##홍
##朮
##翊
##鍔
##鄕
##旌
##葡
##遙
##肇
##渥
##俎
##琢
##鰻
##駁
##聡
##陟
##菫
##頗
##灼
##棗
##輌
##最
##邈
##處
##篁
##卉
##甸
##慎
##杢
##攘
##禱
##禾
##⋅
##帷
##嫉
##纜
##鹹
##إ
##詁
##贄
##塙
##翩
##腱
##姜
##淞
##┃
##鬆
##薮
##靄
##Ā
##犠
##毐
##兌
##體
##잠
##踵
##囂
##榜
##窮
##뽀
##漸
##膠
##潴
##趨
##湫
##蝮
##斥
##盥
##ľ
##穎
##总
##ɐ
##褪
##貶
##疸
##敲
##Φ
##糜
##枷
##柚
##椰
##鑼
##棍
##欺
##泄
##觜
##盂
##繹
##蟲
##鹽
##樣
##與
##າ
##ວ
##★
##嘘
##號
##筝
##鯰
##漆
##夾
##寨
##Ç
##扁
##鉈
##慰
##皺
##陌
##ხ
##褻
##愴
##揉
##珎
##兩
##嘯
##綽
##%
##擧
##嵬
##輛
##靭
##憺
##蜥
##牲
##滄
##翻
##沽
##襠
##þ
##隸
##婢
##餐
##彭
##竇
##鍮
##淆
##鎰
##綰
##菲
##隴
##猥
##羌
##—
##吽
##酎
##翎
##彧
##袱
##綵
##頊
##衒
##稻
##蠅
##琿
##螺
##讎
##碼
##權
##綏
##歎
##拼
##坡
##僊
##鰹
##视
##鞠
##雍
##践
##蟇
##坏
##芎
##凋
##匯
##悍
##誄
##妤
##遥
##倣
##姻
##鶉
##脊
##凉
##澱
##捉
##較
##愾
##蝉
##鹸
##勰
##簋
##尓
##汝
##砧
##睹
##醇
##鴦
##髻
##挺
##巍
##推
##貼
##ද
##丐
##悔
##玖
##烟
##聘
##胱
##杲
##匙
##硯
##薯
##邳
##綺
##灤
##壙
##嚥
##牡
##煩
##맥
##蟠
##擅
##彗
##憾
##磔
##簫
##ʤ
##袞
##姐
##Х
##碕
##❚
##À
##熕
##晦
##恬
##鵞
##嘔
##–
##埵
##煉
##檄
##汾
##披
##營
##闡
##ᅵ
##蘆
##嬢
##蔣
##灝
##繞
##畫
##庚
##辜
##Λ
##苞
##▲
##偵
##釵
##且
##惧
##稈
##赛
##敎
##涸
##隘
##幀
##遮
##藉
##濂
##綸
##旺
##蔚
##橇
##焙
##饒
##◆
##翳
##鋺
##繇
##啜
##拐
##苫
##畷
##沮
##檬
##恃
##龗
##鈑
##禿
##槿
##惕
##檻
##檣
##§
##暈
##堕
##燦
##阯
##炒
##辦
##喊
##弋
##Č
##琛
##麥
##顥
##鈔
##拗
##杰
##鮫
##頡
##軀
##长
##叶
##躅
##踢
##竦
##轡
##誘
##亘
##娠
##瞞
##筮
##ນ
##狛
##靱
##铁
##昕
##葩
##İ
##厓
##鍾
##韋
##蓼
##隋
##曼
##《
##舺
##佚
##翦
##檗
##但
##呵
##柩
##頁
##蔦
##娩
##惇
##崙
##邁
##Ş
##椀
##袂
##麋
##颪
##І
##競
##詡
##辿
##宥
##餮
##詢
##箪
##◎
##掖
##喇
##咀
##燾
##겨
##窺
##墺
##辟
##帕
##鮎
##鵠
##˧
##銜
##纓
##窃
##孜
##烹
##珣
##羞
##憩
##竃
##趙
##←
##巷
##穫
##閭
##褥
##孟
##鼬
##Æ
##瑀
##茜
##凤
##杣
##筰
##彿
##鰍
##釐
##瑁
##冢
##湧
##罔
##黨
##闢
##围
##鞨
##喘
##你
##隗
##Ô
##秉
##僉
##爨
##怯
##睨
##褄
##聊
##懇
##褸
##簪
##靫
##邱
##爬
##礬
##垈
##鷄
##ᄒ
##繡
##逞
##倩
##總
##洸
##설
##鄭
##繚
##徠
##掩
##旱
##扈
##茗
##兰
##鄂
##滾
##崋
##掾
##臏
##亦
##砺
##紬
##啖
##Á
##餞
##憚
##粗
する
いる
ある
19
20
から
こと
201
その
れる
なっ
ない
200
など
##ール
ため
日本
##ック
##ター
##リー
この
られ
より
##ット
10
##ング
いう
なる
##ラン
##スト
##ート
また
よう
あっ
もの
まで
##ュー
##ーム
あり
##ード
##ント
18
12
##ティ
##ョン
199
11
##ンド
学校
##00
大学
でき
おり
これ
##かっ
##イン
##ース
##ディ
よる
##リア
##er
放送
それ
198
よっ
昭和
##ップ
##ション
##ーク
##ージ
プロ
##リカ
##ーズ
##ーン
アル
現在
##イト
なく
197
15
受け
だっ
なり
しか
##on
アメ
東京
##バー
世界
キャ
##する
アメリカ
17
##える
時代
##in
なかっ
16
つい
使用
英語
##an
ファ
できる
会社
登場
196
テレ
##レー
られる
場合
平成
おい
イン
##ープ
コン
行わ
テレビ
選手
##ラー
ジャ
研究
しかし
##ライ
##める
##ar
13
##しい
194
##ンス
30
作品
##リス
195
14
ライ
番組
##ッド
##en
##ンジ
##or
存在
##リン
多く
可能
発売
##ルト
##イル
##ランド
たち
とも
活動
開始
映画
##カー
リー
クラ
のみ
##ナー
##ーマ
およ
フラン
##at
しま
当時
##れる
同じ
##al
フィ
チャ
バス
鉄道
呼ば
25
および
対し
##シュ
明治
一部
タイ
##ダー
##ックス
にて
スタ
##es
時間
大き
行っ
##ニア
チーム
21
なお
開発
発表
ディ
ゲーム
##ける
代表
出演
##リーズ
取り
22
##イツ
193
大会
アルバ
##シア
ドラ
##ic
地域
オー
同年
以降
開催
だけ
変更
24
##シャ
##ステ
スト
参加
アイ
さら
##がら
##レイ
関係
ニュー
フォ
シリーズ
たり
##ナル
23
出場
おけ
持つ
以下
せる
##it
##オン
所属
ドイツ
利用
担当
##ンター
用い
自分
ながら
中心
いっ
##クター
アルバム
フランス
設置
試合
##ロー
さらに
##is
##サー
##ッチ
2010
多い
以上
記録
音楽
##20
大阪
株式
自身
##クト
かつ
出身
コー
国際
##ウン
##しく
一般
なら
中国
##ニー
##ャー
攻撃
事業
##ーズン
引き
サン
行う
リーグ
##ょう
シーズン
##ンバー
##フィ
生ま
28
26
考え
##ブル
ステ
かけ
監督
2009
2008
優勝
アニ
高等
27
2012
女性
2011
マン
##ングル
##パー
ウィ
グル
アン
委員
収録
必要
##el
2007
教育
フェ
##ソン
知ら
##ーツ
##ベル
中央
31
##デル
情報
文化
問題
卒業
##ビュー
192
務め
29
##ウス
スペ
2014
2015
ジェ
##まり
社会
設立
2013
##ジオ
位置
##he
##レス
##ファ
事件
地方
##マン
うち
都市
サー
ただ
自動
2006
通り
ラン
##スタ
2016
アニメ
##ーション
シングル
##フト
##ギリス
ジョ
##ion
イギリス
##めて
ほか
##ネル
キャラ
2017
##ol
ブラ
世紀
##フォ
いく
##して
##ールド
191
ウェ
結果
とき
サイ
計画
ほど
戦争
##上げ
最終
影響
同様
ショ
高校
##ータ
##わり
当初
##ラス
作曲
2018
##le
##ou
##as
販売
##わっ
##ウェ
終了
最初
及び
シャ
##ロン
2005
km
建設
異な
##ころ
##ヴァ
グループ
獲得
##ヴィ
一方
2019
##ッカー
100
##よう
人間
生まれ
センター
人物
##キー
機関
かつて
2000
そして
メンバー
##ーター
部分
スター
政府
##まっ
地区
以外
##om
アー
##ンク
発生
##わせ
##リング
まま
##ジア
特に
##ステム
##ンタ
状態
##re
最後
彼女
選挙
技術
場所
教授
制作
持ち
野球
システム
航空
50
##カル
調査
意味
##イス
廃止
年間
ところ
##il
##ぞれ
ブル
スポ
それぞれ
##am
しまう
全国
##メント
政治
##ッシュ
年度
決定
##アン
40
経済
2004
マイ
モデル
ただし
戦闘
##スター
##レン
就任
施設
2020
構成
向け
キャラクター
##et
主義
能力
デビュー
合衆
持っ
名前
女子
##ac
##ビー
##us
公開
ヴァ
オリ
製造
##ケット
歴史
スー
路線
関する
##ラム
京都
高い
記念
管理
##ザー
契約
こう
デザ
全て
チェ
設定
列車
採用
##イド
相手
同時
##ジェ
##ro
ホーム
##テン
##デン
##フェ
##エル
さん
生活
合併
帝国
あた
実施
入り
車両
ロシア
##ルス
起こ
目的
##シー
公式
出来
ロー
エンジ
最も
190
指定
##海道
機能
ダイ
たい
戦い
##出し
2003
名称
カー
ドラマ
組織
ベル
##ing
対する
道路
##んど
特別
##リスト
初めて
##ーロ
運行
通常
リリー
##ビス
シュ
本作
受賞
##かり
果た
ヴィ
使わ
クロ
与え
出版
生産
漫画
最大
議員
部隊
共和
コミ
トラ
丁目
##ンチ
少な
クラブ
そこ
##ンダ
##ンプ
IS
##ッツ
##ろう
##リオ
続け
企業
##ートル
搭載
海軍
ライブ
00
始め
##スク
対応
サッカー
イタ
交通
協会
基本
公園
最高
リリース
運転
##わる
ラジオ
カード
勝利
科学
##ER
189
##ニング
##ンガ
製作
運動
一人
##タル
主人
##コン
パー
含む
188
結婚
大きな
##クション
完成
2002
アナ
##ch
もっ
デザイン
##ーナ
事務
警察
伴い
総合
##ディング
北海道
活躍
JR
予定
主に
実際
独立
宇宙
プレイ
ハイ
##イトル
自由
営業
##アー
イタリア
時期
人口
内容
ほと
バイ
2001
編成
飛行
マル
ティ
発見
##ッパ
いわ
作詞
江戸
##アル
一覧
ほとんど
大正
マー
特徴
##チャ
新聞
サービス
重要
以前
ユニ
成功
小説
バンド
自ら
加え
##ルフ
##モン
理由
エンジン
ミュー
##ッグ
##テル
提供
インター
レー
タイトル
参照
性格
##かけ
##がっ
移籍
ジュ
ビル
経営
187
しまっ
##ディア
専門
神社
ソフト
##ter
##ed
完全
時点
スーパー
##ay
様々
挙げ
##ヤー
入っ
ネット
連続
35
##ギー
文字
連合
導入
再び
構造
評価
##ビア
##リック
カップ
1990
初期
期間
付け
ウォ
新た
チャン
##AN
##付け
行動
企画
運営
バー
プレ
オープ
対象
設計
指導
##nd
異なる
##ワー
すべ
000
##古屋
イベ
子供
##id
開業
決勝
of
データ
名古屋
そう
よく
認め
もと
支援
撮影
##タン
移動
国家
言わ
改称
##クス
病院
非常
すべて
スポーツ
##ad
ライン
大きく
とっ
指揮
法人
紹介
工業
##ティー
cm
ファン
展開
述べ
##ur
表記
##ーカー
##os
イベント
以来
##まる
規模
##ig
ひと
##バル
変化
##ent
1999
ボー
##ation
不明
国道
スク
競技
国民
物語
装備
程度
##000
ちゃ
ここ
表示
舞台
レース
フリー
人気
##ゅう
距離
##IN
団体
45
グラ
##わら
教会
##プリ
クラス
文学
ミュージ
##ピック
mm
環境
学園
##ot
男性
プラ
由来
##ストラ
番号
追加
##込ん
結成
##入れ
ブロ
全体
共同
のち
県道
##BN
##ミー
ヨーロ
工場
##トル
多数
1980
乗り
1998
電気
労働
地球
議会
写真
関連
ジョン
##じる
レコ
レイ
高速
##せる
広島
天皇
楽曲
##AR
##じめ
##シャル
##ッジ
作戦
方法
ヨーロッパ
アレ
##リンピック
ISBN
形式
限定
CD
テーマ
銀行
##いは
##um
息子
##マー
空港
60
いず
コーナー
言葉
##らか
会議
カル
St
過去
ローマ
演奏
少年
##ON
国内
発行
オリジ
##ウンド
##ンパ
##キング
建築
サイト
社長
事故
連邦
##ボール
どう
インド
ほぼ
強い
福岡
試験
##ェル
アク
##込み
アップ
通信
The
区間
小さ
思い
陸軍
オリジナル
候補
裁判
美術
NH
韓国
協力
整備
##ッセ
##けれ
普通
入れ
ユー
立ち
##らし
会長
支配
横浜
地下
死去
果たし
32
発足
周辺
1997
使っ
ドル
統合
自治
あるいは
大統
大統領
くる
##メージ
装置
輸送
##ルド
対戦
打ち
初代
##ジー
登録
仕事
##太郎
専用
配信
##リエ
##iv
基づ
掲載
36
ぶり
自然
##ag
トン
劇場
1996
48
べき
ロック
大戦
##ウム
運用
スペイン
同じく
民主
##なり
いずれ
##込ま
ター
組み
##イズ
NHK
アジア
##ガー
原作
千葉
少女
効果
オリンピック
破壊
##ドル
唯一
経験
##BS
1995
誕生
##ショ
引退
方面
ワールド
##んな
種類
##ir
##ギュ
好き
映像
行い
##ow
ベース
生徒
エン
##げる
ホール
しよう
II
複数
確認
##ゴン
##ネット
タイム
##デュー
##チェ
含ま
##ec
わた
郵便
ステージ
33
状況
編集
表現
生き
主張
タイプ
##em
1993
1970
移転
学生
##イント
人々
##かる
##ネス
ちゃん
動物
新しい
出し
1994
ファイ
ハー
##im
工事
##なっ
朝鮮
比較
##シン
なけれ
産業
制度
ます
部門
エル
##レーション
ニューヨ
王国
編曲
元年
家族
プロデュー
個人
勝ち
トップ
ニューヨーク
成立
反対
繰り
入る
大臣
方式
##えば
1991
1992
やす
形成
近く
受ける
##ウト
死亡
##ia
##st
本部
IC
##ジャ
業務
付き
合わせ
モン
##od
スピ
現代
##ルム
##un
付近
ごと
フレ
取得
行政
##ut
34
スカ
図書
1989
報告
条件
正式
FC
朝日
186
プレー
主要
##クロ
途中
いい
##AS
復帰
本人
##パン
コース
##AT
県立
クレ
言う
##スコ
中継
##ティング
バージ
しば
発展
55
求め
メートル
##ダル
直接
##ジャー
##こう
##OR
博士
国立
97
以後
ニュース
愛知
500
当た
##がる
成績
有名
系統
選出
呼び
1987
料理
##ちら
言語
店舗
はじめ
保護
続い
Ch
フロ
アド
フル
施行
電話
連載
描か
##ーリー
武器
きっ
拡大
魔法
アフ
方向
##ヴェ
##つけ
観光
男子
つけ
作ら
##ッション
パイ
流れ
切り
ベスト
##ントン
後半
##ap
##セン
オープン
九州
もう
所在
雑誌
作家
大型
シェ
生物
オブ
俳優
分類
競馬
80
ゴール
オン
追い
目指
司令
##リーン
##ポート
選ば
##リティ
In
使い
##oc
##ジェクト
1988
つつ
ガン
南部
迎え
組合
##サン
スコ
芸術
イス
地上
メイン
含め
復活
##替え
シン
です
公演
本社
特定
王座
示す
##キシ
41
務める
38
##がり
##かし
ワン
##ズム
##らい
##デオ
バル
父親
##チュ
地元
##ul
37
##合わせ
##ラル
食べ
周年
##and
関し
選択
開設
率い
本線
取締
バック
得点
新潟
##ゆる
カリ
平均
批判
ツアー
the
支持
##BC
プログ
ピア
クリス
編入
カナ
精神
行き
アラ
やっ
ポイント
ギャ
スタジオ
あまり
ページ
人民
アンド
被害
パリ
1986
42
事実
あたる
神戸
##プト
仲間
見せ
コンピ
将軍
向か
##キュ
植物
##ンドン
ジャン
すぐ
購入
##らく
思わ
翌年
よれ
防衛
フラ
特殊
ドライ
市民
艦隊
安全
市場
所有
女優
外国
##ES
39
##ールズ
##リート
近い
原因
失敗
設け
作り
配置
細胞
1960
キー
進出
ダム
各地
説明
なか
ハン
商品
1984
##メン
地名
記述
43
メーカー
医療
##なわ
太平
台湾
電子
実験
70
グラン
44
建物
##セス
エネル
バラ
中学
##50
標準
1985
##レット
政策
加入
アカ
電車
カン
シーン
##ークス
敗れ
語っ
##レード
山口
メディア
ルー
直後
##トロ
関東
成長
##ウェー
増加
ゲスト
##合い
決め
デジ
入学
高く
基地
##出す
エネルギー
製品
##ak
使う
化学
DV
レベル
軍事
離れ
300
##メラ
住民
ロンドン
##ジュ
プリ
改正
土地
ブランド
明らか
##イク
##ガン
代わり
改造
東北
##ピー
系列
ビデオ
##シング
##EN
神奈
関西
障害
##ースト
達成
パン
無い
プロジェクト
kg
発電
ロボ
1982
##イア
スケ
規定
リン
派遣
##IC
##ers
速度
##op
CM
年代
惑星
兄弟
90
コンピュー
トリ
トラン
政権
処理
北部
静岡
フジ
形態
##なる
旅客
福島
例えば
同社
ホテル
イメージ
呼ぶ
##ウル
行為
一時
沖縄
機械
少ない
仕様
DVD
比べ
レコード
神奈川
連盟
通じ
ユニット
戦後
残っ
作業
巨大
延長
モード
##ルク
残し
理事
ヴェ
##ッケ
二人
##av
##AL
in
出会
46
記事
バージョン
富士
拠点
少なく
内閣
独自
長野
接続
きっかけ
米国
強化
従来
47
なし
記載
建て
レギュ
##ub
##ri
かなり
経由
##ュニ
トラック
中華
海外
##ロス
上記
イラ
商業
停止
主演
セル
シー
違い
##込む
資料
長崎
1983
作成
操作
ソング
住宅
共通
投票
##IS
言っ
歌手
コロ
ギリ
##AM
マーク
落ち
至る
制御
##ウンサー
ミュージック
指摘
1981
##ストン
アナウンサー
##og
強く
集団
##ov
博物
制限
##ロット
たら
オフ
ガス
停車
創設
温泉
面積
ライト
機構
1972
定期
母親
示し
継承
スパ
##ルー
分野
条約
近年
作っ
交換
TO
実現
現れ
1975
おら
置か
1950
プレイヤー
競走
ヒット
ポー
ミニ
革命
まと
解散
埼玉
オール
詳細
友人
法律
ボール
##スティ
伝え
描い
1979
脚本
1978
太陽
貢献
1976
書か
レギュラー
分離
##ピオン
空間
##VE
優秀
##HE
機体
ブリ
トゥ
部屋
1974
パラ
刊行
新設
反応
紀元
陸上
##ニュー
昇格
言い
##ブルク
54
殺害
軌道
978
岡山
統一
いつ
レス
##ダム
相当
責任
##ce
同盟
大陸
##ie
学院
アイドル
##スタン
続く
貨物
性能
##AC
##リアム
命令
意識
パート
##ッフ
##ニック
##返し
披露
書き
##ンズ
##ウィ
ブルー
##th
展示
古代
進め
カラー
本来
内部
感じ
振り
##21
##ウェア
交差
参戦
コード
周囲
仙台
見る
エア
クリ
農業
th
ちな
スキ
向上
##ランダ
勢力
要素
集め
デジタル
自体
限り
##ミア
カナダ
キング
1969
毎年
あれ
交流
##ーフ
兵庫
ジョージ
報道
演出
##ab
民族
スタート
鹿児
##ブリ
##ゲン
オーストラ
鹿児島
TV
伝統
エリア
エレ
##OM
安定
訓練
つく
範囲
宗教
皇帝
名誉
校舎
段階
理論
ダイヤ
51
##ファー
1968
禁止
シティ
メダル
ランド
動き
要求
1973
田中
奈良
家庭
##ard
コミュニ
ルート
オーストラリア
##掛け
貴族
医学
継続
長い
1971
しまい
チャンピオン
全員
キリスト
ソ連
ダン
ポジ
ミサ
出来る
基準
地震
回転
役割
ST
##eb
52
##ディー
##しくは
##ill
49
挑戦
体制
熊本
通称
通過
つな
みな
得る
現役
減少
##バイ
結ぶ
予選
スペシャル
イング
まだ
工学
維持
##OS
もら
提案
逮捕
1977
解説
##エン
TBS
読み
##ッキ
生まれる
ブラック
ヶ月
取引
思っ
プロデューサー
アト
ショー
原子
起き
さま
主催
1945
体育
ストーリー
##ワード
##立て
対策
前作
岐阜
中村
首都
なさ
全く
##切り
en
##ーネ
##ell
札幌
首相
##ワーク
##ッサ
欧州
53
行く
身長
フォー
治療
せい
扱い
1000
##ミング
一緒
##ガル
ウィリアム
モー
始める
本名
宣言
鈴木
スタイル
サイズ
ペン
1967
戦車
知っ
##ist
##ra
##FA
コンピュータ
小学
伝説
レッド
カメラ
広く
主な
ギター
観測
オランダ
世代
58
分か
##igh
前後
##レート
##EC
##ボン
コーチ
認定
訪れ
防御
##ッキー
ダウン
起こし
しばし
課程
##AP
st
改革
文庫
開通
がっ
異なり
兵器
##ーチ
判断
終わっ
単位
コンサ
建造
投手
やま
けん
制定
向かっ
毎日
すれ
勤務
良い
##マス
得意
セット
##レント
インターネット
もしくは
コンビ
分割
危険
感染
声優
ソロ
ポジション
連絡
除く
一定
##ッカ
フィリ
マネ
1965
しばしば
THE
基礎
週間
##ジョン
de
東海
負け
1964
スタッフ
小型
発言
依頼
会員
更に
185
##そう
##ine
指名
既に
備え
自己
用いる
名乗
回復
ロード
進学
##バート
パワー
戻っ
帰国
しょう
##ショナル
定義
指す
消滅
移行
プログラム
ヴォ
アフリカ
キロ
隣接
コント
インタ
推進
立て
秋田
##ずか
オス
押し
##くり
まし
児童
再開
国鉄
知事
Al
発射
車体
同一
らしい
書い
著作
キャン
トル
セント
知り
改良
##クラ
##ナム
Re
##やか
かか
##続き
置く
##ジン
56
リア
飛び
400
乗車
当選
##ニス
ずつ
後述
連れ
判定
資格
消費
##らす
ドラゴン
到着
土曜
近代
##ッコ
##かい
SP
任務
主題
##出さ
ノー
単独
)-
ユダ
河川
機器
海岸
出現
##ok
目標
62
グリ
長官
大字
理解
フォン
低い
184
1966
エピ
定め
ランキング
長男
区域
始まっ
視聴
##est
西部
始まる
助け
対立
エド
年齢
##ーニ
##ビン
オル
##ゼル
起用
##ミン
エイ
メジャー
デュ
無く
カバー
消防
戦士
本塁
カラ
後継
##ンスター
小さな
急行
中止
趣味
1947
1955
##ケーション
ラー
更新
##テナ
##おり
アマ
##ティスト
バン
記憶
##ダン
ピアノ
在籍
旅行
身体
##レンジ
##ID
マシン
##ind
デイ
民国
あら
様子
##とう
いわゆる
作る
1963
学会
師団
設備
##ess
ボス
意見
演じ
電力
63
##ip
ヘル
出る
吉田
巻き
立場
ミサイル
An
山田
石川
やすい
収め
憲法
180
開幕
##ノン
あたり
##トン
ニコ
すぎ
後期
##フォル
共産
前述
ロボット
練習
イングランド
出す
半島
ゆう
ダンス
管轄
チョ
富山
元々
特急
ナイト
芸能
サポート
平和
機動
ユダヤ
57
応じ
文書
属する
任命
会場
保存
##・ア
金曜
##ヴォ
解放
##ストリア
与える
和歌
創立
実行
スマ
命名
ほう
##テム
有する
諸島
亡く
大量
画面
衆議
グリーン
わけ
リーダー
ジャパン
騎士
##ハン
PC
向かう
##ーラ
##AD
##ーブ
ハウス
佐藤
模様
刑事
アス
##ジル
もっと
チャンネル
進行
マク
南北
##IT
64
注目
階級
1948
傾向
##チン
作用
徳島
1944
教師
ポーランド
##ルトラ
75
徒歩
##ケル
確保
困難
幕府
オペ
通算
1949
##all
ナイ
思想
駆逐
エンディング
##OL
青年
##ッター
##取り
東部
吸収
##リーム
##イルス
直前
物質
1962
タウン
捜査
バトル
形状
供給
歌詞
##トゥ
##ob
連隊
##カン
##換え
伊勢
弁護
金属
普及
##ET
##BA
両親
ファミ
一種
引き継
##ッピ
ネットワーク
目指し
再生
物理
##if
準備
59
保険
地位
医師
アカデ
学科
##ポン
Ar
教え
1956
サラ
通し
街道
計算
##ルン
検査
領域
1941
価格
投げ
阪神
トロ
執筆
対抗
記者
1940
##シャン
インディ
and
過ぎ
183
自衛
休止
売り
##ザン
##UR
ばかり
幹線
高橋
##ik
##ルツ
##シェ
アイテム
リング
期待
##ブン
天文
持た
無料
##バン
ブロック
いち
わずか
処分
ヘン
ルール
資金
松本
イスラ
61
出力
見える
ウルトラ
か月
潜水
##セル
アーティスト
どの
犯罪
##ソード
##art
65
コレ
US
アプリ
占領
パス
検討
武装
##衛門
呼ん
敗北
##もと
##リアン
##ジアム
ルイ
宮城
##ンサー
分け
##ant
新宿
コマ
まず
前年
大きい
日曜
##ーンズ
イラスト
ガー
負傷
適用
ブラジル
合計
##ノー
##ざま
1961
変え
空軍
##ライナ
残り
話し
概念
べく
撤退
遺跡
テスト
講師
ブレー
クロス
民間
トンネル
パーク
初回
未来
入団
置き
##US
信号
大分
せん
アリ
##ct
日間
生命
1958
交渉
取っ
爆発
解決
マスター
名義
戦う
結局
カール
##イオ
1952
上位
やや
1954
サイド
ラグ
体重
臨時
一番
1959
You
メモ
用意
##フォルニア
シル
ポール
くれ
リス
本格
どちら
なん
ブレ
##シス
宮崎
エス
川崎
球団
シナ
伴う
健康
1943
FI
判明
同士
大和
失っ
襲撃
許可
ヒロ
注意
愛称
固定
知識
もた
スウェー
認識
公共
香港
機会
##グラ
区別
メイ
##ツィ
カリフォルニア
エピソード
スイ
スウェーデン
とり
今日
停留
開校
新人
大幅
##OW
オーストリア
AT
1930
免許
入社
審査
##たり
##キシコ
分析
徳川
往復
ライフ
だい
青森
##80
トレ
モンスター
##ロール
##トリック
Sh
つき
公立
食品
オート
加盟
果たす
Bl
合流
収容
##イム
組み合わせ
インタビュー
##ーグ
##一郎
スコット
ヤマ
落と
##ビエ
1951
ライダー
##NA
##ンタル
PS
仮面
古墳
同日
互い
優れ
市長
アカデミー
合成
合格
##ight
ビジ
少し
希望
登板
##ort
買収
進ん
エリ
アシ
サブ
続ける
哲学
遺伝
##ども
Pl
寺院
権利
背景
トレー
創業
清水
鎌倉
##ud
前身
多かっ
崩壊
市街
おお
オープニング
小林
録音
支店
流れる
##クサ
フィールド
##ive
グランプリ
やが
山本
必ず
現場
率いる
じゃ
よし
ベイ
古い
たく
否定
有効
##メートル
1942
##リュー
##ue
携帯
送り
提出
改善
ジュニア
Sp
不足
山形
拡張
現象
1946
あい
ボク
三重
燃料
##ルタ
##ーブル
しん
楽し
藤原
FM
伊藤
兵士
方針
財団
##パス
がっこう
変身
##OC
01
姉妹
次い
短期
結ん
呼称
祖父
パーソ
乗っ
リスト
先発
##持ち
コンサート
ウイルス
各種
略称
過ご
ちょう
分布
統治
表明
##ティック
やがて
##ベルク
あと
学習
格闘
##ワイ
バンク
次第
ジャンプ
アイル
スキー
動画
南西
##チャー
##FC
スペース
上昇
前半
信頼
こそ
アウト
神経
##ブラ
##ne
##ッテ
##エスト
基づく
左右
毎週
##ge
##ろし
1957
現地
オーディ
まつ
ムー
見つ
始まり
衛星
逃げ
##かさ
増え
##ティブ
コンク
大使
弟子
送っ
##ミュ
##ワイト
##起こ
##ターン
サウンド
一族
ケース
やり
危機
イオン
作中
専攻
移管
##でに
プロレス
推定
殺人
積極
試み
##クル
ダブル
ヘッド
自転
##リウス
加藤
原則
拒否
パイロット
藩主
181
##ran
チャート
表す
調整
さい
十字
深夜
1953
すでに
クー
タレント
広告
判決
ディー
ターミ
三菱
人類
描写
武蔵
カット
ラテン
##ED
ころ
ポルト
秘密
##トリ
ハード
プライ
十分
だろう
規制
北緯
命じ
生じ
中部
低下
患者
すなわ
すなわち
De
ソフトウェア
モノ
場面
竣工
##てる
ベト
##UN
##ティア
##シャー
バレー
マッチ
書店
シンガ
共演
戦隊
支払
通っ
150
さまざま
マイル
置い
##ドリ
ミス
メキシコ
付属
修道
数学
##サル
海上
法学
Com
ダー
ボーカル
かん
##クシー
テロ
住む
指示
Mar
##シック
##レーター
強制
##ッハ
##ピン
地点
本拠
フライ
興味
フィン
テキ
国会
北西
##ッタ
120
相互
GP
##ity
Ne
侵攻
もつ
##ーマン
自宅
いか
信仰
まさ
論文
##ペン
ウェブ
いき
執行
護衛
フランク
マス
改名
コム
手段
数多
死後
称し
##デス
イエ
クリア
司会
大半
##ry
アイルランド
こちら
カウ
##io
ノル
福井
満た
東洋
##ナイ
##っと
ホワイト
投資
表面
金融
福祉
ビジネス
集合
集落
住ん
北東
クル
小田
走行
駅前
スプ
マリ
ターミナル
うえ
植民
職員
テク
育成
承認
装甲
スクール
テン
##ンダム
##ーマー
求める
179
事態
SH
グレ
マラ
生息
議論
軍人
##ian
終わり
茨城
衝突
軍団
遅れ
##ニュ
基づい
当たる
77
ドア
メル
代理
反乱
守る
##モンド
歩兵
規格
76
話題
価値
現実
##リーナ
かかわら
ヒト
正体
結び
超える
遺産
ウェイ
ヒル
数多く
めぐ
ボタン
若い
電鉄
まとめ
どこ
実業
差し
有し
歴任
抵抗
##II
##次郎
ワシ
中間
突き
##タイ
先生
戦略
1889
王者
わたっ
画家
##チュア
和歌山
外交
閉鎖
体験
##イング
ファイル
##ate
コミック
##やし
##サス
じょう
シート
本編
完了
役所
震災
##ナン
強力
投入
良く
はず
##ゼン
マリア
チュー
大賞
移住
証明
##トラ
##スタント
ベトナム
81
掛け
知る
英国
協議
生み
開か
##ジット
実力
見え
##フレ
プレミア
コラ
人形
Un
週刊
##組み
アクセス
部下
長く
##ログ
ネーム
暮らし
申し
笑い
翻訳
シャー
募集
国王
##キン
無線
超え
ジャック
Th
ヒュー
1920
動作
改修
統計
買い
##から
留学
集中
##ティン
85
ロケット
至っ
Pro
地帯
月曜
##30
##our
将来
放射
##デー
スタジアム
シア
感情
ケン
悪魔
属し
800
入手
天然
協定
高度
##取っ
プラン
守備
居住
箇所
重量
##ib
オーバー
キュー
クライ
空気
##リコ
エジ
名付け
コス
東経
相撲
取り上げ
1937
トーク
普段
沿い
深い
##ビル
1939
ハンド
ペル
終盤
聞い
さく
案内
結合
過程
アクション
分子
##ich
世帯
貿易
##ねる
LI
つまり
各国
考える
進む
ソビエ
マグ
変わっ
選抜
BS
しゃ
従っ
##LE
##違い
初め
午後
発達
ハンガ
##ハー
プロデュース
全長
早く
資本
##プス
八幡
四国
手が
ソビエト
ガンダム
東西
##ph
86
##チュー
##マーク
パーソナ
渡り
着用
議長
##ain
事情
渡辺
##AY
##合っ
デン
争い
楽器
ちなみ
オフィ
教室
##ゴル
引き続き
あげ
岩手
戻る
諸国
残さ
##OT
メッセ
初頭
レーベル
レコー
バレ
##ームズ
手法
操縦
##ack
吹き
相談
カタ
渋谷
アイス
フット
予備
側面
学ん
譲渡
輸入
北京
訪問
転換
限ら
##ッズ
従事
カイ
広場
##AG
エース
王子
確立
ロバート
人生
##ントリー
##ect
再建
暗殺
養子
スイス
出さ
学者
警備
達し
##カス
##RE
##ord
クイズ
ヒー
メガ
傘下
午前
##カイ
メール
次元
終え
グランド
平日
残る
駅舎
とう
個体
現れる
脱出
コロン
発揮
ハリ
##ff
Le
ブラン
歴代
要請
##イヤ
義務
ベルリン
コピー
西側
ビッグ
井上
保有
回避
翌日
##te
目指す
ポルトガル
売却
高知
キャリア
アメリカン
平方
赤い
##AK
##プロ
そんな
ダメージ
リンク
応援
演劇
際し
バスケット
爆弾
74
モスク
カトリック
ドー
全米
##キャ
大将
池田
##ヴァー
きょう
NE
No
恐れ
##ボー
##ows
取材
戦艦
新型
発着
終点
##per
おか
コメント
BO
末期
音声
ワシントン
機種
##ゼルス
##ヌス
繰り返し
ギリシャ
##ッピング
99
ごろ
セイ
徐々
ユーザー
プラス
上野
巨人
書籍
##フォード
71
約束
尋常
活用
66
SS
ウク
描く
取る
起こっ
よい
女王
受け入れ
ドライバー
伸び
昇進
群馬
178
実質
男女
##の子
Wind
料金
殺し
一切
南東
用語
締結
600
人員
##se
境界
多様
##ランス
創刊
沿岸
##立つ
1938
伯爵
回数
記さ
##オス
ハンガリー
下記
太郎
補助
1936
悪い
附属
##なた
流行
生成
解体
##合う
プロダ
コミュニティ
ゴルフ
タン
中世
必殺
規則
進化
戦国
収入
95
モーター
両方
標高
見せる
182
フィルム
セレ
ソー
ボディ
酸化
人工
史上
たま
##マル
スピード
パートナー
いえ
エク
長期
ブレイ
金沢
73
圧倒
渡っ
連結
モチ
国勢
最多
観客
違う
##ION
1933
ネタ
仏教
構想
ヤン
心理
政党
正確
脱退
複雑
ドン
辞典
ソウル
上げ
自殺
##フィア
ブレーキ
公表
態度
グロー
ロン
打率
くん
ロス
敷地
死ん
決意
##ばし
##立っ
分かれ
エジプト
下り
参議
提携
177
クイ
ロング
放映
武田
財政
1935
リュ
修正
##end
87
たと
単行
ハル
戦死
社員
##レッジ
顧問
##IR
##ING
ミュ
作者
本体
トルコ
Cl
夫人
授業
社名
##ピア
姿勢
幹部
##コール
##稲田
割り
悪化
鳥取
主力
接触
明る
現存
離脱
アム
アタ
ウル
マジ
手紙
たる
古く
栃木
講談
##分け
##チス
##ッス
ヘンリー
88
##ルトン
ウクライナ
78
##ボード
イスラエル
ロゴ
恋人
証券
連携
##ドゥ
幼少
銀河
MS
たび
上映
扱う
早稲田
順位
##ーナメント
商店
大人
##ない
予想
神話
血液
評論
##ver
ドゥ
付い
続き
起点
##ーリ
具体
本当
柔道
殺さ
画像
絶対
隠し
##EL
##キア
ステーション
在学
明確
ヴァン
メロ
##ナス
##兵衛
しばらく
##シュタ
栽培
装着
##IG
マイケル
出会い
AC
中山
令和
小さい
てる
はる
テニス
##ンバ
ファッション
アレンジ
96
ベン
劇中
追放
関数
解釈
Go
アウ
トーナメント
投稿
病気
##40
1932
アント
加工
極めて
重視
##セント
##IM
##たい
来る
止め
高松
##テイン
パル
保持
再度
半分
##ang
##ass
トヨ
働き
勝負
守護
対決
##バス
##つき
##ミス
たか
シュー
ホイ
両者
数字
暴力
##ベット
看護
項目
Am
リニュー
手術
ドーム
レオ
一致
ライバル
改め
曰く
##・デ
ディレ
コラボ
Su
コメ
混乱
リニューアル
06
合同
冒険
聞き
##ッシ
##コー
ギリシア
もっとも
国境
時計
発動
バスケットボール
コル
劇団
材料
私立
類似
駐車
振興
興行
##シル
##ast
ブログ
68
会話
##直し
ジョー
##サンゼルス
PR
ハート
メカ
同期
外見
職業
AS
サル
緊急
##入り
1934
アニメーション
かわ
アート
ラブ
ロサンゼルス
侵入
容易
考慮
優先
即位
帰還
授与
整理
ラグビー
以内
変換
次男
防止
権力
答え
頭部
ミュージシャン
半ば
##々木
バラエ
道具
##ケン
1928
づけ
上陸
##ah
##どり
スカイ
あき
シカ
サム
利益
##ロード
デス
平安
戦っ
西武
##レル
##GM
ウィル
させ
寄せ
##ベルト
1931
##フィック
フェル
コア
戦線
##シップ
スポンサー
02
160
##ore
地図
解除
##az
##ウェイ
##ーナス
98
差別
##回り
キャッチ
SC
合意
楽団
経緯
部品
トランス
モチーフ
72
プロダクション
さえ
ガラス
上下
外部
##パート
Con
キン
働い
出走
新田
##ly
##プレ
およそ
ごう
子ども
まっ
措置
木曜
組ん
com
交代
活性
災害
レコーディング
スティー
ゼロ
ポリ
最近
有力
確定
ゴー
山梨
性質
振る
称さ
Windows
けい
先行
北側
区分
様式
蒸気
ランク
リチャ
会館
##ライト
##ld
1929
奴隷
監視
ナンバー
抱い
称号
空中
##10
山脈
白い
象徴
モンゴル
タッグ
意思
探し
##たま
ウェル
とど
搭乗
盛ん
##ン・
引き起こ
ヒーロー
一家
子孫
ドラム
出来事
あらゆる
上海
保守
違反
##ブレ
##もり
ストリート
レスト
上り
佐賀
短い
##なし
上部
パーソナリティ
併設
決まっ
##フィー
再現
月刊
黒い
##ニャ
MC
信じ
参謀
団地
大手
支部
測定
除い
##三郎
ジャケット
05
エンター
##ーバー
##之助
176
ドラフト
出発
故障
生涯
芸人
駆け
170
コート
ワイド
単純
オペラ
for
入れる
復興
気象
ジャズ
モスクワ
ひろ
爆撃
石油
退職
##ber
##ステル
スケート
一員
予算
快速
書房
球場
##セプト
700
スラ
交響
市内
1925
ローカル
EX
おこ
北朝
愛媛
触れ
##クソン
##EST
Be
戻り
構築
##上げる
異なっ
ヒロイン
印刷
有限
菓子
関心
82
センチ
中野
主体
夫婦
通行
##one
ディスク
SU
太田
##メイト
ファミリー
ボル
67
すら
パターン
不詳
先端
問わ
最低
火災
輸出
##向き
バイパス
パフォ
下車
##age
修了
古典
大隊
屋根
重ね
##フス
##セット
##サイ
##ミニ
ショップ
マガ
直通
著名
##べる
1926
Gr
トライ
下部
新規
漢字
著書
クレジット
コレクション
激しい
##ートン
スコットランド
トヨタ
ゴールド
ジム
東映
##リット
メッセージ
Pr
デモ
前期
印象
当日
##ボル
公認
援助
改札
許さ
過ごし
ハム
1927
あなた
収集
学ぶ
##越し
かかる
ビーム
##ライン
##らえ
あたっ
##テインメント
たけ
効率
千代
深く
##レンス
とおり
先輩
委託
攻略
滋賀
線路
証拠
跡地
ジェット
ジェームズ
コール
ニッ
##サイト
フィリピン
マネージ
92
キック
言え
##iz
まる
幼い
##ージュ
シナリオ
ポート
射撃
来日
電動
ソン
流通
異常
関与
ビット
恋愛
通う
フロント
79
当主
開い
250
もともと
SF
一環
分岐
国土
推薦
該当
トム
リード
言及
##ッパー
##PG
##ドン
##ストロ
にく
誘導
負担
##クタ
##ンパス
03
ピン
メン
東側
次々
##11
ノース
後方
III
一体
探偵
短編
##リル
09
くれる
再会
親友
##ix
##んじ
##テッド
リチャード
分解
送ら
黄色
とる
タンパ
住居
引っ
走る
##ラント
エディ
歌っ
移り
##uc
取り入れ
修理
終わる
##なか
##ナルド
当たり
同級
文献
用途
突然
総督
##イナー
依存
##ial
##ST
04
中島
##oh
取り扱
アミ
幼稚
##ブス
##チョ
08
84
ゆえ
トイ
大橋
##ss
##たく
##フォーム
##チェンジ
出馬
天正
苦し
訴訟
資源
スパイ
ナポ
プリン
伝える
区画
国防
地理
申請
発掘
費用
89
ミラ
学び
##ノス
##ens
起こる
##ide
ダーク
抜け
架空
キャンパス
オプ
領土
マスコ
台風
撤去
無人
オーディション
観音
小野
抑え
インチ
起源
##さい
ディス
TR
南側
症状
試作
イー
平野
沿っ
発明
香川
IN
コスト
直線
##KO
##クトル
ドライブ
タンク
ドロ
到達
変形
自社
解消
##ンジャ
バラエティ
メタル
幅広
当該
打撃
滞在
##ージェ
69
いけ
周り
定着
封印
日常
遠征
2021
ゴールデン
木村
##アイ
##プター
クラシック
##ite
マイクロ
マルチ
不可
国有
春日
盛り
配備
##ong
北朝鮮
なぜ
代替
包囲
屋敷
温度
##ies
##ジョ
##ザベ
ファンタ
1918
落とし
トレード
伝承
記号
##33
##回る
1923
アブ
演技
ポル
最新
特性
##下げ
ジェイ
中期
既存
##aw
##・マ
##ure
##立ち
##受け
ジャンル
エクス
大西
故郷
##ーマンス
ピエ
前田
実績
離婚
##フル
##ice
ヴィル
同月
捨て
スマート
スーツ
入力
動産
犯人
退団
長年
学年
犠牲
##ッケージ
まち
スリー
ワイン
文明
CP
He
らしく
ホル
前方
親王
NT
いた
もし
ポスト
次ぐ
発音
##センス
##wit
AN
ケイ
ボックス
保安
塗装
期限
##止め
チャールズ
亡くなっ
Br
ガイ
マリオ
単に
意図
##pp
##ティス
##ンチン
ディレクター
変わら
簡単
音源
パフォーマンス
GT
パッケージ
信用
将棋
聖書
しょ
忘れ
瀬戸
##かす
##ond
##ライズ
DS
決戦
継い
語り
近鉄
1922
さくら
フリ
学術
怒り
攻め
##ポール
ライオン
1924
インディアン
報じ
##リズム
##man
##ウルス
キャンプ
ユース
思う
願い
##くま
レストラン
北条
##・オ
101
コンセプト
フィル
インターチェンジ
教皇
読売
##ペーン
接近
校長
1919
シャル
OS
かた
ちゅう
シリア
タクシー
別名
織田
言える
送信
閉店
えき
取扱
宝塚
辞任
##KY
ヴェル
生じる
角川
##UT
##ニスト
スロ
保障
所持
抱え
日記
育て
##っき
##ちゃ
食べる
中隊
受験
岡田
才能
挿入
開店
電波
食事
##アリー
En
Se
研修
##アス
##ft
##ンジャー
##ヴァン
LO
失わ
敗退
##ary
ガル
兼ね
属性
水曜
神宮
##しろ
おそ
建立
気持ち
110
キャプ
つか
ませ
タワー
ハワイ
ポップ
並び
修行
推測
気候
英雄
##IL
1921
マガジン
あろう
メトロ
北陸
応用
養成
ニッポン
5000
みんな
地形
成田
折り
絵画
バレーボール
パーツ
ミリ
入口
造船
##チア
##oy
取り戻
1914
ナショナル
伴っ
気づ
##ミネ
デンマーク
もち
ツー
ラウンド
##TR
フォード
フレーム
はじ
キュ
促進
教員
突破
衣装
##ーレ
任意
信長
合戦
番地
##おう
ファースト
##ube
シカゴ
ガイド
要塞
記し
コンテ
ポケ
自主
詩人
##ox
##・カ
##ウント
リスナー
DJ
ケーブル
借り
出資
台車
武将
立っ
##シスコ
##22
##ach
SM
ブック
プール
火山
特技
##ウォ
マレー
全線
妖怪
移民
通る
プロモ
家臣
文部
ブラウン
FIFA
のり
抗議
自民
高級
ベルギー
ch
働く
出席
占め
合体
天使
工作
演じる
財産
郊外
##モア
フィンランド
上演
不良
佐々木
批評
開館
AR
司教
埋め
大佐
連覇
##ace
3000
今後
在住
実家
##しま
イラン
ミシ
双方
怪獣
総理
175
スタン
91
ヨー
ラム
再編
功績
同名
想定
行方
##OD
##ネシア
nd
デル
全域
処刑
分裂
当て
戦力
続編
##ジラ
##っくり
Play
クリー
回収
審議
決める
認可
進み
閲覧
降伏
##プル
マイク
Co
ざる
した
レジ
とて
エンド
参考
大野
安打
掲げ
複合
解析
運賃
##ポーター
##クサンド
乗客
冒頭
士官
学区
松山
##ドロ
キャスト
1910
NP
うる
ミッション
放つ
肉体
衝撃
##AA
##プラ
レーザー
ホー
仕え
相模
観察
##・エ
##ug
ディズ
ショート
##フェン
83
AV
助手
後者
水戸
コンパ
CH
ピーター
代わっ
厚生
派生
疑問
##須賀
基づき
ファイナル
レスラー
ソニー
デー
ノン
パソ
リアル
一連
暴走
起こす
終戦
総称
ギャラ
キャンペーン
カテ
ガード
少将
帰っ
数々
賞金
近郊
##取る
1900
##ica
むら
ヤング
秀吉
##ャン
##ire
157
マイナー
タンパク
Ex
共有
司法
成分
粒子
行なっ
##IP
##ith
##ust
チェコ
フィリップ
しも
トー
座席
資産
除き
##しゃ
##当たり
ジャイ
持ち主
アマチュア
って
ピンク
勉強
素材
若干
表彰
診断
##OP
##まら
##ish
循環
端末
ヴァル
コミックス
ボーナス
倒し
勲章
国外
町名
運輸
ウィーン
合唱
宇都
書記
独特
総務
バイオ
##ock
戦時
無かっ
示さ
コムーネ
BL
うた
倒す
大名
特典
破り
選ん
##ヘン
##つける
1912
CS
いえる
ルイス
天王
奪わ
打点
##・ド
##ational
トレーニング
AL
AK
若手
159
93
マリー
下位
人数
体系
厳しい
図る
焼き
短縮
越え
##EM
アレクサンド
あの
王朝
示唆
経路
近畿
防ぐ
##バラ
##ニン
##当て
ニー
並行
怪我
歌う
甲子
軍隊
手がけ
方言
説得
イスラム
味方
##ゲル
スキル
コミュニケーション
パネル
全面
努力
後任
浴び
運航
##ッティ
##ウッド
##ゾン
出会っ
宇都宮
KO
##・ラ
##qu
ストライ
コントロール
07
上田
後ろ
融合
訴え
証言
##イラー
##ネマ
165
一帯
会見
家督
少数
恐怖
航海
議席
デザイナー
ひとり
アダ
低く
森林
相続
関わっ
マサ
併せ
送る
ライセンス
フットボール
たとえば
ブライ
ラスト
偶然
騎兵
黄金
プレゼ
おも
ボン
正義
民営
退任
##ージー
ごく
ポン
レンズ
今回
##ment
分校
女の子
テキサス
パソコン
FA
他人
任じ
反発
周波
宣伝
最強
見解
##書き
LIVE
出張
勃発
##ベース
##プレイ
##ミック
ファイター
グレイ
ツール
ヤク
南海
火曜
チェンジ
BGM
Web
ゾーン
保健
加わっ
130
トラブル
つける
リオ
事前
西洋
見つけ
阪急
##つい
##エフ
ステークス
ボクシング
CR
先頭
函館
##なう
ついに
##orld
しれ
ミッド
多摩
威力
避難
開拓
騒動
レーダー
Sch
入院
損害
救出
迎える
阻止
キャスター
中日
小川
正面
海洋
相対
駆動
高田
ボーイ
コロナ
もらっ
Vol
パック
逆転
##やく
##らさ
占める
夜間
師範
競争
聖堂
落語
##チル
##ッキング
##ツァ
##ッセル
New
ゆき
中将
足利
やすく
ベー
上級
山陽
指し
最中
##タウン
アルゼ
コンクリート
ディーゼル
AM
ふく
就職
広域
提示
難しい
##ッシャー
##ークル
受け継
-)
実装
想い
扱わ
死刑
要因
##ギュア
ドキュ
海賊
苦手
需要
166
ショッピング
Ph
サス
例外
海峡
移植
行なわ
ディズニー
中川
仕掛け
商人
日々
課題
雇用
##上がっ
オプション
モール
一面
橋本
簡易
##返す
ポンド
適切
長女
関わら
##WA
##ワン
カフェ
タッチ
坂本
山崎
近づ
##ケード
チャレンジ
##tern
94
上流
事例
創造
日中
祭り
逃亡
救助
登山
フィギュア
ビー
大韓
根拠
田村
##イラ
取り付け
メモリ
ポケモン
HP
SE
トーマ
ロール
松平
特集
評議
青山
158
キロメートル
to
かかっ
招待
評し
1917
##ase
ユーロ
三角
広い
特許
駐屯
1911
##ディングス
コマンド
スリ
テープ
保育
告げ
外務
未満
警視
近隣
向かい
Ad
ML
グロ
創作
地獄
役員
##ick
オーク
ゲート
パンチ
ペット
ラス
五十
及ぶ
撃破
支え
浜松
豊田
Dr
ワイ
一旦
出産
損傷
衛生
間違
関わる
##ロジー
1915
でし
主導
二十
召喚
固有
手掛け
接する
構内
渡る
話す
降格
##寄り
##イルド
ロイヤ
北米
気付
##好き
取り組
切れ
友達
死者
空母
立つ
キャプテン
Sy
UE
ニュ
バリ
レン
庭園
村上
番線
終結
わたり
CO
てん
カロ
##フラン
かける
ゲル
ヘビー
スタンド
とても
受信
師事
移っ
##レオン
##わし
ジャー
YouT
ベルト
告白
実践
市川
改めて
車線
降り
##・ス
ウィン
アルゼンチン
いま
モル
乗降
北九
圧力
閉じ
高齢
##FL
ウェスト
オフィス
北九州
しゅ
マスク
取ら
同僚
マップ
魔術
##ルズ
##VA
##UM
##ory
スライ
会計
別れ
庁舎
戦術
捕虜
経過
表し
コンテン
ノルウェー
うま
セミ
一貫
北方
大宮
小倉
転じ
魔女
Mus
ビール
売上
存続
生存
男爵
語る
質問
おく
アサ
サウス
ドリーム
開局
##カラ
##ai
##St
##エット
##ヒー
##ert
アンダー
アプリケーション
ウェブサイト
エンタ
原題
吉野
彫刻
従業
施さ
スカウト
ちなん
ON
ガール
倒れ
悪く
請求
##むら
ソース
疾患
紛争
高原
ショック
家康
接し
##ツェ
##入れる
And
不満
老人
##スラ
168
169
勧め
描き
改編
打ち上げ
三島
三十
主流
削除
岡崎
成果
戦前
遺体
魚雷
##イセン
チェーン
アラブ
##ove
巻き込ま
したがっ
HD
和田
##ヨン
156
オスマン
アシスタント
マネージャー
Sc
アキ
オレンジ
マックス
修復
慶長
##IA
名乗っ
プロモーション
トーマス
出土
嫌い
読者
走り
都合
長谷
##ソー
##pe
##バイス
##メル
##iss
不能
正月
空襲
美しい
若者
行事
140
データベース
小さく
ローズ
暫定
歌唱
療法
確率
##36
##われ
ないし
オーケ
マラソン
くらい
夫妻
題材
高山
##OK
この頃
##oun
IB
とら
目撃
移し
ショット
MV
Tr
al
あくま
入門
転向
##レオ
プラット
がん
実用
##フラ
##チック
##ベン
##エラ
1913
##ジュール
ニック
全身
加速
小山
市営
後輩
有料
補給
車内
配布
##切っ
##ミル
アルファ
UEFA
OF
じゅ
ロケ
張り
船舶
まん
ボート
レディ
一郎
急速
開放
Col
Te
セー
医薬
喫し
奏者
打者
琉球
装飾
遊び
雰囲
##pt
##まれ
雰囲気
かい
イル
三郎
提唱
##sh
174
エドワード
テル
協同
度々
権限
水素
選定
##カリ
わたる
リク
動員
官僚
小松
船団
##右衛門
サンタ
アトラン
ウッド
容疑
旅団
検出
王位
黒人
##スティバル
やる
山下
当地
番台
通貨
##ーノ
##っかり
1907
名乗る
AP
エー
並ん
反映
縮小
コメディ
Me
放出
秘書
##たび
##ath
ミュージカル
当たっ
コロンビア
##witter
cc
三浦
半年
木造
つれ
カレッジ
待ち
栄養
豊富
##ier
##久保
クリスマス
あくまで
ブーム
人種
好意
頻繁
##ook
ウォー
プレゼント
スミス
偵察
削減
基盤
署名
連勝
##エー
シンガポール
アーム
上京
伊達
倒さ
##ジーランド
クリエ
会津
制覇
憧れ
日立
時刻
遭遇
##レム
##トー
##マイ
##上がり
##サウルス
##ence
タイヤ
ニュージーランド
アナログ
My
ギア
クロー
ビュー
フー
兼任
国連
外観
感謝
##ナショナル
##日市
164
Car
なれ
変わる
大気
非難
##わさ
オリコン
IP
リスク
三振
亡命
山地
控え
航路
訪れる
騎手
##リフ
##24
1908
もらう
トイレ
同行
結ば
酵素
##テーション
##ile
フェリー
あわせ
ベンチ
マニ
室町
東海道
種族
ペア
レール
主任
本土
水系
諏訪
質量
フェア
カム
保管
座標
本店
変える
競輪
鉱山
隠れ
##ロフ
ランプ
IT
カンパ
中断
回路
地中
戦場
排除
敗戦
流域
瞬間
魔王
171
ふる
ネイ
密度
応募
感覚
改装
東急
プロイセン
立ち上げ
エキ
サイン
三井
着手
突入
##しみ
161
寄り
正解
満州
無視
##ey
インドネシア
エレクト
##っきり
ボストン
炭素
着陸
社団
誇る
講演
選ぶ
ヴァイオ
セルビア
JC
カス
メタ
前提
山岳
島根
廃車
福山
##35
##ドウ
##ースター
さいたま
ナビ
先駆
守り
容姿
延伸
水産
理想
皇后
艦長
認知
陥落
##int
ブルース
世話
前面
横須賀
集まっ
La
とく
当局
編纂
##かける
フォーク
ハーフ
900
MA
ニン
品種
実況
宮殿
心臓
激しく
量産
飼育
##ae
##思議
##バーグ
ハンター
復讐
豊か
逃れ
高野
##モス
イラク
Ed
ルーム
消え
配属
陥っ
飲み
飾っ
##NS
バイク
ホールディングス
エリザベ
##シュタイン
DC
イリ
サークル
リミ
リゾ
出典
条例
河内
現行
義塾
財務
##リヒ
##25
スイッチ
シンガー
前線
天才
意向
日産
避け
魅力
##・ク
挙げる
カップリング
フリードリ
ネオ
ベネ
マド
広がっ
成り
数え
東方
混合
総会
##まえ
1906
1909
コンテンツ
ゲージ
君主
征服
放棄
##DS
##もん
フェスティバル
ちょ
オレ
叩き
美濃
表紙
##付ける
なくなっ
##ivers
ワー
正規
##とめ
積み
語ら
ステップ
アラビア
下し
論理
風景
##リダ
##ガス
##ost
カテゴ
ビーチ
人格
休日
入場
妨害
慶應
検索
称する
##クセン
##EE
##かく
##フィール
マンション
オーケストラ
出入
同人
外科
定員
引用
紋章
青い
シド
動力
原理
壊滅
絶滅
ファンタジー
ダニ
不正
内蔵
歌舞
通学
##ベニア
プログラ
かね
レンタル
初演
大島
失い
奉行
延期
##しん
ディア
ダウンロード
太字
踏み
##ノール
155
繰り広
ウラ
上場
余儀
供用
歌劇
浦和
電源
##ンタリー
ラーメン
ターン
容量
薩摩
ミル
源氏
独占
米軍
限界
領主
##TA
167
##ork
アリス
クール
プレス
内側
晩年
観点
##ロウ
##ool
##ヴェル
##IO
125
ジャーナ
シルバー
にくい
セブン
体力
内務
大切
日野
真実
売り上げ
-』
ゴム
刑務
刺激
横断
##uk
徹底
教科
農民
##ドイツ
##いち
YouTube
DD
予約
天保
気温
活発
負っ
##テイ
ゆく
事典
天体
後藤
心配
数値
直径
築い
階段
ダービー
コンテスト
伊豆
司馬
毎回
認める
部族
##はり
1897
ボード
ラウ
乗せ
保証
強調
担っ
決議
自称
##アップ
##orm
1916
##apan
CL
Twitter
不思議
史料
女神
式典
書く
看板
石井
野村
##アニア
##ium
##・ハ
##27
Fl
交戦
交点
繁殖
補佐
1901
ユニバー
フリードリヒ
JAP
ナチス
修士
天神
弱い
旧制
珍しい
落下
プロセス
アーケード
チェック
パロ
マツ
割合
浮か
破っ
道場
##テス
##ロイド
インターナショナル
Wi
カプ
キル
ギル
ゲイ
公社
海戦
診療
##グル
バレエ
アポ
入賞
文芸
置き換え
おそらく
UN
しり
予測
使える
山頂
狙っ
考案
##au
##ニオ
##ニックス
信濃
曖昧
講座
##取ら
ようやく
むしろ
エージェ
バーン
去っ
図っ
墓地
発覚
##セロ
##エム
パーティー
主役
個別
制服
放っ
白人
藤田
調理
長岡
##IV
##チャン
みる
やはり
デッキ
ヘイ
内戦
博多
変動
甲板
覚え
##ペル
##ime
こく
ノート
##ぐる
スコア
ヤード
気筒
調べ
##テク
##キスタン
乗り入れ
今作
侵略
大谷
最小
環状
確実
臨床
車庫
避ける
##tt
##ark
##ical
プラザ
コンクール
プレミアム
Ver
グラス
ゴル
サウ
和解
大変
師匠
近衛
首位
##TC
##IX
##エンス
あさ
せよう
リト
上手
並ぶ
賛成
重複
キス
ドクター
上杉
大山
定める
施し
監修
評さ
謝罪
##渡し
1500
バイエル
ナポレオン
いれ
メス
乾燥
全般
力士
妊娠
近藤
電機
##ローズ
##ラク
##ネイ
テクノ
バード
国籍
埋葬
楽章
砲撃
背中
##TV
##amp
ムービー
バカ
季節
手伝
神殿
高架
##ee
##ニカ
プロト
##ッスル
ガソ
不安
切っ
学長
流し
緑色
##rom
##詰め
述べる
ターボ
TOKY
##ウィン
両国
元気
勤め
囲ま
宿泊
業績
武士
牽引
襲わ
##31
##ズマ
ストーン
##フォン
##ンガー
ダイヤモンド
引き継い
MLB
みや
グレート
プル
品質
愛し
文章
警戒
##ron
##ann
##ash
##ヴィッド
チップ
境内
東宝
百貨
落選
要望
##ビング
##ニコ
オーナー
歌舞伎
スティ
斎藤
無理
管弦
##アフ
##ニオン
##がし
JAPAN
ミラー
体操
##ネー
ファル
ED
かみ
明日
毛利
演説
##さん
##美子
135
チュ
丘陵
制し
審判
昆虫
甲斐
福田
##カンド
##AB
##ーマニア
ガソリン
on
くだ
アベ
ルーマニア
京阪
化石
敵対
歯科
神田
種目
隊長
##isc
スーパ
尽力
探検
焼失
##ッソ
もたらし
スズ
ツイン
ナレーション
出店
無効
眼鏡
総長
解雇
##・コ
##バード
##がい
インスト
どんな
付与
含ん
山中
抑制
皮膚
集会
##キュー
##メンタリー
##づけ
クイーン
ABC
はら
アプ
アラン
グレード
パナ
上院
純粋
軽量
1896
RE
World
アダム
ガリ
クルー
公国
前日
天気
実在
配給
青木
##シオ
Joh
エフ
墜落
成人
拘束
水上
酸素
1898
じゅう
レイン
人事
伝わる
同等
寄付
支流
救急
最古
評判
##チナ
##リアル
##ナイテッド
ロイヤル
##Station
ID
スロー
ヨハン
人材
叔父
松井
##34
##回っ
交際
介入
勝手
南方
向き
学位
維新
車種
馬場
##リード
##ーニャ
Ser
いろ
きょ
主宰
前者
安倍
巡洋
##ドラ
スピン
バージニア
SD
はっきり
りん
コウ
ミステ
在位
変わり
大塚
大津
検察
正しい
盛岡
稼働
配慮
鹿島
##ビリ
##ウロ
ジャクソン
スポット
生き残
Wh
きれ
みず
りゅう
リバ
公爵
創建
尊敬
法的
港湾
追っ
重力
顧客
食料
##・バ
##NN
フォース
エンジニア
DNA
Japan
リベ
同意
椅子
欧米
立地
通勤
運河
コーヒー
シャン
しゅう
学名
当然
透明
##oo
ダイナ
TOKYO
乗員
双子
回答
室内
講義
高め
##ail
##28
##バイル
PlayStation
##フランシスコ
りょう
ラップ
死ぬ
選考
飯田
##シエ
##オー
##なく
起こり
ヘリコ
下旬
水道
液体
熊野
発し
長らく
降板
##ハラ
##ハイム
##Hz
サンフランシスコ
ヒトラー
リゾート
NBA
WW
五輪
倶楽
回想
大坂
考古
調達
##・パ
##ton
##ern
生きる
レスリング
倶楽部
EC
ほしい
バット
バランス
ミズ
ラリー
ワーク
夕方
外野
大衆
武道
運命
開き
##やす
すぎる
ジャイアン
IV
ふじ
ロマン
外れ
宮廷
後部
整数
敷設
無限
野田
高崎
##ダイ
##son
AD
出撃
参入
模型
渡し
物資
貸し
##マド
ファー
タイガ
フロリダ
DE
GO
ねん
三河
中盤
吉川
周期
本項
無事
総裁
荷物
身分
##オル
##落と
##ina
クラウ
ジェネ
シアター
ドキュメンタリー
Or
ダル
バッ
小屋
被災
##なす
##着い
フィート
アレク
MO
予告
大い
大公
操る
構え
消し
省略
##ージャ
アタック
rd
エミ
ロッテ
加賀
土佐
所蔵
流用
特化
##26
##デア
##太子
レビュー
恒星
論争
込め
しかも
SO
上回る
厳しく
懸念
推移
##・サ
115
コンテナ
アグ
コネ
シグ
代行
空手
野生
飲食
##しき
##ニョ
105
アルコール
フィラ
1905
か所
ユナイテッド
事項
出雲
就い
性的
有機
水平
視点
踊り
間隔
##リウム
##37
##ばす
コラボレーション
ヘリコプター
させる
たん
吹替
喧嘩
客車
株主
褐色
闘争
##ばさ
ライター
レーシング
Man
乗務
典型
東南
結論
読む
##ノフ
##ビュ
##ワール
##五郎
つもり
オオ
山城
序盤
抜き
担う
東芝
次郎
水中
調教
重傷
開く
##ナント
##ザーズ
##ズミ
1904
どれ
イェ
喪失
大地
婚約
島津
役場
##ナップ
##99
##どう
チャンス
1890
##stem
アリーナ
台詞
寛永
尽く
繊維
言動
##リラ
##ョウ
センチメートル
エリザベス
介し
付ける
商号
広報
我々
本町
超人
降下
##プレス
##デター
##掛ける
##リーグ
ライナー
りつ
ダグ
起動
##ペラ
ジョーンズ
1903
350
Comp
ミュン
ハイン
圧縮
挟ん
数十
走っ
電化
##BO
満たす
たびたび
まったく
三木
滅ぼ
王立
確か
魔力
##TS
千代田
Love
MP
vs
けど
カスタ
ブー
但し
倉庫
有利
比例
見舞
阿部
プロテ
ヤマト
ソル
ペース
会談
冬季
単語
捕らえ
生かし
退社
釣り
##コース
##ニズム
##馴染
スターズ
NTT
スル
ポケット
化合
垂直
失点
学問
川口
行使
西村
近江
##ウェル
ティー
ほん
アバ
ナン
久保
将校
教養
##セイ
##左衛門
##are
##arl
##ンジェ
PV
PD
UFC
進める
違っ
##ヘルム
##ンドラ
##ライター
##ound
ブルガ
##AND
LOVE
COM
あん
ケー
下流
余り
天井
後年
従い
救う
無し
短く
職人
著者
高木
##ノイ
##47
##打ち
アルバイト
マジック
キム
コイン
下院
公務
捜索
祖母
##ットー
ウォル
プレート
##リエーション
バイエルン
JA
クレイ
ミドル
前回
増大
改組
河口
贈ら
配下
アーカイ
BM
メニュー
住人
儀式
分間
国分
抗争
推理
救援
日光
明石
民俗
熱帯
特撮
理学
県内
結晶
関節
##込め
シェア
##アフリカ
ボウ
人権
婦人
福音
行列
##シュー
##オケ
1902
切り替え
##ミネート
カンパニー
ウイ
トウ
分かっ
半数
受章
沈没
達する
##テネ
##ッピー
##ズル
Ge
or
しろ
バイト
早い
東武
##エア
##モリ
BOX
もん
カート
バンダ
併合
城主
真っ
青春
##PS
ストック
ジャーナリスト
シミュ
リズム
史跡
名鉄
品川
地面
就航
役者
治安
獅子
立体
表題
親子
##ムス
##oft
##コス
##MA
1871
RPG
シネマ
チベット
ミネ
モバイル
ロウ
全部
南アフリカ
奪っ
対照
滑走
特異
通路
##land
##ics
だん
フロー
任期
併用
大尉
海水
漁業
##ずる
プリンス
はるか
ゴジラ
ママ
同市
断念
薬物
被告
##ax
##ux
##MS
ストロ
交易
出生
新築
生え
衰退
電池
##38
##グロ
##ゆき
モニ
命中
幼馴染
建国
濃度
習得
航行
長編
##29
##たん
##ハウ
パーティ
キーボード
エレベ
ワル
伸ばし
作画
優しい
商標
残す
筆頭
藤井
農林
進歩
重賞
##ood
##ゼフ
##かん
##揚げ
ならび
カラオケ
みち
撃墜
面白
##リティー
生み出し
ホイール
なき
みどり
セーブ
傍ら
大河
奪い
広がる
扱っ
深刻
覆わ
##ブロ
インディア
##クトリア
サンデー
ジョージア
もり
住友
初戦
天下
比率
汚染
疑い
筑波
聞く
退役
遠藤
野菜
##せん
##ヴェン
ブリッジ
ペンシル
キューバ
おき
そば
ジー
ベッド
体内
封じ
歩行
法則
精霊
芸名
##・ディ
シュート
##INE
##ACK
CPU
わかる
支社
模し
筋肉
統制
肖像
討ち
順次
##ギス
##ERS
グラフィック
アダルト
名詞
展望
殆ど
甲府
盗塁
石田
科目
細川
買っ
鑑賞
集める
##ネン
マンガ
1875
ウォーター
グラウンド
Intern
シンボル
Lin
きり
ノミネート
ピー
メアリー
京成
化粧
対処
景観
騎乗
##アウト
##捨て
エンタテインメント
ハロ
佐世
原料
専属
少佐
左翼
復元
改築
歌謡
照明
誘拐
転用
返還
##コモ
##ューン
NEW
タイガース
佐世保
Live
ゾン
上がる
予防
僅か
厳密
教団
松竹
面し
USS
VS
シロ
ロマ
出品
暗号
歌い
済み
討伐
##チオ
##hy
コーラス
つながっ
引き継が
ブレイク
メロディ
シャルル
半身
外側
幕末
ジョンソン
チョコ
WBC
上がっ
先代
回り
大久保
忍者
本物
洪水
統括
要する
譲り
赤色
##UE
ガーデン
小田原
がち
振動
本種
東大
検定
監査
耐え
認証
##ッヒ
##att
ストア
フォル
##olog
クロア
Gu
シェル
失う
細菌
配列
銀座
##らしい
##ont
##ERO
1899
ワード
反射
奪取
標的
海兵
満足
至ら
##しかっ
##90
武蔵野
カントリー
セガ
トニー
ボブ
ラッシュ
動く
大好き
完結
抱き
招い
朝廷
松田
町内
砂漠
艦艇
郷土
##ラト
##ve
##あい
EP
ビン
ムーン
中核
乗る
互換
人称
住み
水泳
目覚
荒川
西口
詰め
豊臣
路面
##23
##モニー
##oci
出会う
モーニング
##ount
年次
数百
新潮
老朽
読ん
隊員
##mp
##ank
##ンジョン
マルクス
1873
スプリング
おう
ずっと
カレー
小島
施工
桜井
水準
滅亡
胴体
##ep
##ろん
インテ
ヴィルヘルム
長谷川
Mac
ガールズ
メイド
モント
世間
及ぼ
抜擢
極端
白石
真理
辞職
##ビジョン
みつ
元禄
公益
分散
切断
学級
強度
恐竜
改訂
早期
死体
発症
赴任
##バーン
##面目
コーポ
アンテナ
ジェフ
##old
クリエイ
意志
所長
春秋
背後
##gr
アーサー
食べ物
##フスキー
クロアチア
Ab
中退
中等
仕組み
神聖
##ose
360
Inst
なかなか
みなさ
##ction
かず
キリ
ギタ
セン
人質
反撃
定理
忠実
指令
永遠
詳しく
##リオン
##60
イエス
ブルガリア
アピ
ジン
セカンド
バルト
今度
尾張
帽子
拳銃
符号
部長
駅名
##IE
##UB
1880
##ode
##ツィア
クリーム
マクロ
ヨハ
不要
不在
冷却
友好
呼吸
国務
好み
後日
排気
異動
警告
賠償
##ッシー
##44
##ゲーム
##act
見つかっ
住所
加わる
同作
欲しい
121
##ale
うまく
FR
ドール
医科
商工
城下
望む
正教
殿堂
牧師
違法
電撃
黒田
##ッラ
##バキア
##切ら
ショウ
##ame
##ART
アドレス
ライフル
たけし
エコ
パレス
ヶ所
新作
落成
表情
覚醒
##ヴィチ
##ult
ヴァイオリン
GR
グア
ラジ
ロープ
口径
多用
姫路
幸せ
広大
手続き
暮らす
毎月
箱根
追跡
##えもん
##ance
Blu
For
GI
まい
ココ
大輔
挙行
捕手
##寄せ
118
ストレート
1886
ミュンヘン
スワ
パシ
リメ
小笠
排出
##iel
##ata
##ンプル
カウント
リトアニア
CG
かく
ケンタ
哨戒
大井
突撃
管区
船体
近世
##まし
##ペット
割り当て
Op
きゅう
出口
助言
同志
日米
緩和
##af
##ッポ
シュタ
パイプ
セントラル
AKB
Rec
SA
いし
セール
マカ
メディ
個々
原田
対称
従軍
貴重
##PER
タイミング
##ッセン
イスラーム
あや
ペイ
ミックス
ルネ
広げ
牡馬
牧場
現状
造ら
金額
食い
##リンズ
##ild
マレーシア
ジャイアンツ
こだ
上述
可愛
報酬
大蔵
支線
耐久
電流
##ベンチ
117
もたらす
クーデター
明るい
幅広い
Music
Cor
たっ
チン
デラ
ピース
レア
力学
勇者
博覧
同型
奨励
干渉
慶応
次官
玩具
育っ
船橋
親交
1893
アンドレ
プラットフォーム
イヤー
バグ
ホラー
一気
中東
備える
初日
南極
大田
工芸
廃棄
把握
狙う
製薬
##ps
##ザード
##なさ
##ポリス
ファイト
呼びかけ
ダニエル
ギタリスト
グレー
ネル
フード
反面
安田
小隊
払い
橋梁
留まっ
石炭
脅威
興業
西方
過剰
量子
103
ハリウッド
NO
イチ
ボラン
不動
予報
八戸
定年
捕獲
熱心
王妃
神学
##スカ
##セッツ
##キット
1872
やら
オハ
グッド
富田
性別
東山
業界
楽天
題し
##ウンス
##ガイ
128
ドラえもん
シャツ
1874
John
ベア
ローン
佐野
土木
岡本
岩波
後退
敗れる
横山
決して
海底
締め
適応
##ガニ
##anc
##row
1895
##ジュアル
テキスト
まり
光線
加える
吉本
夏季
引く
爵位
生前
発注
##CE
##引き
##チューセッツ
マサチューセッツ
でん
ドレス
フュー
京王
固め
安政
樹立
残留
潜入
異名
着工
美人
解任
連動
##ミット
ナイター
SL
TKO
イースト
シフト
マリン
リッチ
下関
怪物
生態
菊池
親衛
誤解
##ブリン
##・ロ
##けん
##ータス
El
EM
Fran
クエスト
五郎
洞窟
火星
露出
##48
##ドー
##ハム
##張り
支払い
Qu
ジュー
ハリー
勝っ
感じる
本田
格納
母音
法令
経歴
越後
電磁
駐在
##っち
##ヴィス
1879
##セロナ
TS
YO
kW
シールド
チリ
トロン
ノベル
リボン
信者
声明
官房
専念
曲線
開け
##RC
##ハイ
##ホン
111
ISO
フラッシュ
NS
がわ
セキュ
享保
平行
適し
部位
##ジメント
##ニル
##ニーズ
##ise
##oll
サイクル
スクリーン
ヴォー
マスコット
ピエール
NC
On
だり
ワイルド
使え
入居
問い
家系
年末
恵まれ
損失
虐殺
##シスト
##66
##つく
ライヴ
##フィン
バルセロナ
Is
an
てつ
オイル
ゲー
ドメ
ナム
ピク
ペー
ボイス
入植
小泉
投与
果て
標本
水野
貫通
##ов
##ケート
カーブ
ボクサー
Mi
キット
ネコ
上げる
庶民
最寄り
発信
遅く
重大
##っぽ
1878
ヴェネ
小笠原
AAA
しっかり
シード
マット
多少
成し
技能
早朝
精度
職務
##ear
##ギン
チャージ
##ree
プログラミング
ES
MBS
わから
バート
上空
不振
四日市
平面
携わっ
明け
海域
祝日
阻害
除去
電圧
##セフ
##ject
##だい
ダンサー
知り合い
マドリード
シドニー
繰り広げ
エージェント
エレベーター
MUS
借金
和泉
土壌
就役
年金
法務
白色
ランダム
ユニバーサル
トマス
メダ
伊東
内野
右側
急遽
懲役
流さ
浅草
繋がっ
##sp
##sk
109
シングルス
##ake
##OCK
マスコミ
##ベンチャー
HE
くら
なす
グッズ
交付
債務
前橋
勢い
定数
撃ち
法廷
都心
集英
高める
##リュ
##ナミ
##HI
104
マーケット
過ごす
アーカイブ
リメイク
クラン
クリスト
ハウ
モロ
リレー
同国
変異
技師
技法
辞退
酒井
##EO
##39
##ゴー
##がく
##抜き
ストップ
クラスメイト
##AST
かぶ
ぶん
代々
公民
対面
羽田
顕著
##ナーズ
##ザス
ブルック
思い出
クリスタル
大いに
じん
ゲン
セラ
我が
挨拶
柴田
軍艦
##コル
##ition
サーバ
ペルシア
ブライアン
全集
抽選
挑む
未だ
権威
流出
石原
薄い
要件
##リム
##上がる
##王子
##ローチ
アナウンス
グローバル
取り戻し
っぽ
パンク
ボウル
地質
家老
対空
探索
特番
狭い
関わり
##mer
つながる
ディスプレイ
パロディ
フィラデル
ケル
ピッチ
噴火
皇太子
知的
角度
食堂
##リク
##ロニ
##ス・
##まさ
フィラデルフィア
RC
めい
もらい
保全
充実
加わり
唱え
大神
引い
思考
探査
新しく
概ね
策定
解答
誇り
軽減
骨折
##っこ
##合わ
##ハルト
##ホー
##抜け
アイランド
##ream
")
Met
いじめ
タマ
一行
付加
佐久
宇治
演習
移さ
豊橋
鎮圧
陣営
Ste
##ower
ヤクルト
ar
アパート
光学
各社
島田
望遠
根本
横綱
窓口
釈放
首長
##edia
##oth
しき
ブロン
個性
入ら
判事
在任
天国
奇跡
契機
斉藤
日向
正当
湘南
物体
集配
##HS
##ープル
139
1888
##irl
ピアニスト
ナイフ
明るく
取り組ん
ひら
ひろし
カメ
ボリ
八王子
妖精
弱点
弾薬
採択
掲示
旅館
民衆
漫才
稲荷
突如
立川
西暦
都立
##まい
サンダー
All
らん
タル
ロイ
売れ
工程
消化
薬剤
貨車
音響
##ッシング
アルゴ
もちろん
NAS
かな
すず
ウエスト
チケット
ビート
マウス
リトル
中旬
制圧
口調
増強
対峙
東口
狙撃
目立つ
磁気
絵本
##リャ
##グラム
##バッハ
##とり
##替わり
チームメイト
フェイス
オタ
レンジャー
他社
付く
果実
沿線
花火
襲い
##ベート
##KA
##HT
##もの
##ros
ギャグ
比べる
##ぐるみ
PL
あか
ダンジョン
ベリー
ホークス
元素
名人
市制
識別
頂点
##ロル
##ゲット
##ヴィア
1876
1868
プレーヤー
アドベンチャー
NA
mi
あし
公募
制約
拒絶
撃沈
津波
症候
葬儀
誤っ
遂げ
領地
##トリー
##up
##ヒト
##四郎
パーセント
ブロード
組み込ま
OVA
with
並べ
再婚
基金
由紀
町田
皇子
貨幣
##シウム
##ンスク
##ome
##チェスター
コンピューター
ソングライター
ウィリアムズ
マネジメント
振る舞
System
こん
れい
わかっ
ツイ
ループ
三田
上司
仮想
剣道
原型
因ん
守っ
復旧
捉え
浜田
療養
過激
金銭
アルメ
1894
DO
あお
ビス
ワークス
内海
右翼
外伝
所得
望ん
浅野
立法
紅白
習慣
難易
##eat
##70
##えて
ウェールズ
シャトル
チャンピオンズ
名乗り
ダブルス
バナ
ホット
今井
公的
増える
変遷
##ディアン
151
145
##ヴィン
1885
Univers
エクスプレス
すみ
ウルフ
倫理
幼児
旭川
河原
礼拝
郡区
##ちに
取り組み
マーティン
Ass
ふた
ブリー
メソ
割引
合理
増設
川上
巡っ
工科
府中
押さ
検証
正室
気圧
牝馬
退学
遠く
面倒
##iam
##らっ
##休み
オフィシャル
引き起こし
セルフ
メー
名目
常務
時折
秩父
見送
都内
馬力
##ビッド
##ヶ谷
##ara
チャイ
Off
sp
ゆかり
エロ
任さ
内陸
助ける
市販
本国
社内
禁じ
陸奥
##ラド
##ノコ
##シオン
##32
##yn
##ホール
リーチ
コミューン
##ッセイ
EN
あだ
アース
ザン
デュー
トマ
レオン
ロビン
伝達
佐伯
宮内
惚れ
打席
方程
明かさ
決着
活かし
浄土
聞か
脂肪
踏襲
運搬
##・シ
##レール
##通り
ブラッド
AI
DR
GM
ミー
宣教
常識
抱く
渓谷
準々
直轄
神々
見直し
防災
集まり
##eg
##ッペ
##がわ
##リアス
プロフィール
##ous
チャンピオンシップ
##チンコ
アシスト
##テイメント
リモ
台北
告知
学士
左側
年少
幹事
所領
追わ
##ッサー
108
##クトリー
わたし
Comm
カウンター
4000
Mk
MF
お前
つとめ
はな
タバ
ネー
マニュ
乙女
低迷
体調
同性
好ま
実戦
客員
弘前
摂取
王女
見なさ
起訴
農家
麻雀
##LD
##よし
##わけ
受け取っ
ライブラ
##ign
RS
アール
カ国
仮説
側近
大王
太子
定時
寿命
招き
珍しく
笑顔
##・イ
##KE
##ポリ
サーキット
サイコ
マーケ
グラフ
##ジャン
クリスティ
こんな
イノ
エスト
ピーク
マキ
先祖
水力
聞こ
自作
良好
誘い
##レスト
##いろ
##ジウム
ストラ
##ジェリア
1884
##ott
##ogle
つる
ソニック
冠し
教諭
競合
農場
駆使
##ロック
149
##ict
アーマー
クォ
テーブル
ナイン
単一
客室
拉致
括弧
殺す
自信
菩薩
藤沢
インパ
繰り返す
App
アッ
メリー
ヨーク
努め
収益
各駅
撃退
政務
新生
明かし
最適
染色
熊谷
爆破
間違い
飲料
高まっ
##EG
##HO
119
##ere
##ung
楽しむ
ペンシルベニア
UF
カジ
サント
タカ
テイ
中京
先住
出題
呪い
増し
投球
捕食
西鉄
許し
週末
106
136
ヴァイ
1892
ボーイング
ベースボール
Ac
Bar
げん
カレン
ガラ
シベ
ホンダ
好評
日程
望ま
母体
誤り
軍用
高層
##アント
##ナイト
##コフ
##yl
##セッサ
##替える
ヴァージ
アプローチ
CC
マケ
丸山
排水
支所
池袋
浮上
総額
隠居
##ュル
##ドニア
##すけ
##切る
##フィールド
##フェル
まつり
ぼく
ジオ
功労
売買
平等
教区
最期
服装
町域
知名
背負
造り
開戦
##明け
102
##itt
アンリ
1887
取り扱い
ウイング
オカ
カブ
両手
任ぜ
先進
化し
危惧
太鼓
招集
支給
旗本
暗黒
水域
激怒
真相
管制
頻度
風呂
鳥類
##ius
##タール
##メット
1891
ウエ
エール
トリオ
ドミニ
ビリー
共著
卓球
名づけ
吸血
情熱
打っ
探す
本質
標識
砲塔
秩序
##ベリー
1870
トランプ
リクエスト
アトランタ
きょく
Sm
コラム
サンド
体格
右手
安芸
実態
怪人
火力
砲兵
美女
赤坂
車輪
##さと
##88
##ぱい
##渡さ
アイデア
ターゲット
とりわけ
IBM
AB
さか
しの
せよ
イーグ
サクラ
タブ
バリア
リース
寄生
密か
寛政
川越
松原
没後
車輌
##41
##バック
分かる
列島
天候
想像
抜い
拍子
木材
白鳥
軍勢
農村
##ドール
##ックル
1200
コンスタン
分から
##ords
OP
パール
中原
北口
喫茶
必須
志願
棋士
燃焼
発する
矛盾
##ward
##bo
##ほど
タイガー
吹き替え
ビジョン
ピット
ミン
ムス
受容
松尾
梅田
真面目
芝居
調子
野外
##ネーム
##タミン
##かせ
##ATION
ポルノ
パシフィック
バーク
バリエーション
ヘリ
ヘア
ポンプ
使者
傭兵
元帥
具合
安藤
射殺
平凡
広がり
強盗
悩み
手前
松下
種子
郡山
金庫
院長
駅伝
##ソル
##ェン
##ンドゥ
ニコニコ
##ife
申し出
さき
ダッシュ
介護
出入り
同地
破綻
裏切り
近接
香り
##バマ
##早く
ティア
バンダイ
セキュリティ
FL
ぞう
会っ
傾斜
再興
初出
可決
囲碁
宝石
宮本
本郷
欠点
狩り
町制
絶望
金田
阿波
革新
##・モ
##返さ
##ames
亡くし
プライベート
アピール
ビートル
伏見
好ん
好む
安価
昼間
時々
没し
苦労
貧困
逃走
##45
##UC
##プライズ
##回し
アンナ
##ade
グラビア
ギャラリー
JCT
マーケティング
Par
いす
アーク
作動
出荷
及ん
執政
奪還
寄与
愛情
教官
最上
楕円
淡路
秋葉
自立
長調
##pr
##ワーズ
インス
##ley
##キュア
ライオンズ
ニックネーム
レーン
久留
医者
日蓮
替え
気動
細長
##討ち
##ini
スタンダ
ユニオン
スティーヴ
引き起こす
WOR
おと
やめ
イレ
エリック
マウント
始動
巡る
後楽
悲劇
戸田
気味
発祥
緊張
苦戦
見学
越前
転校
辞め
退官
髪型
##ドルフ
##トレ
##ts
##ディン
テレビジョン
Google
CF
MT
アロ
ドリ
一斉
中佐
創始
友情
合い
平田
白山
魔物
##VER
##レッド
ジョル
##own
ドメイン
BEST
Gre
カウン
グレン
モリ
一見
三宅
入部
全車
円形
出向
占い
商事
奪う
工房
彗星
書類
組む
表さ
賭け
遊撃
##・グ
127
##ヴィヒ
1869
ダグラス
BR
Ind
NET
Will
ろう
エルフ
ケア
ソード
ピラ
兵力
変数
実写
届け
帰り
推奨
泣き
艦船
著し
警部
##テレ
##ネタ
##HC
バスター
アイヌ
ゾンビ
Cr
WE
vol
たかっ
セッション
セリフ
バク
兼務
動機
多大
文政
有馬
津田
満了
立た
記す
##ヤン
##ます
##ひろ
##ほん
1882
とどまっ
リミックス
RO
TD
sh
おさ
こなす
シニア
ルナ
レシ
前進
動脈
寄贈
寸前
広瀬
役職
正しく
歩道
田辺
薬師
釧路
間接
##ラマ
116
ハンマー
##タイプ
ウー
ゴン
公布
別府
土器
楽譜
狙い
西ドイツ
陰謀
##シカ
##yo
先駆け
-」
BB
EU
こなし
とん
わが
スノー
一撃
入隊
抑える
持続
改定
救済
星野
検事
止める
注文
突っ
行なう
調節
農地
郡庁
高島
##ベック
##ぼう
ディオ
コンビニ
SUPER
ミラノ
),
のび
カザ
ゼネ
不全
世田
乗組
公会
古川
情勢
玄関
産地
発現
飛ぶ
##ヴィル
TOUR
幅広く
Gl
わざ
リポーター
上方
中型
倒産
動向
家屋
忠誠
掘り
校歌
水路
真珠
著しく
視覚
起工
飾り
##ニエ
##デート
1600
pr
中毒
冷静
単なる
同局
吹奏
急激
手続
本数
格好
発車
移設
種別
竹内
紀伊
繁栄
詐欺
賃金
転落
通商
運送
##LS
##・ブ
141
クラーク
アンティ
つくば
シミュレーション
きん
アジ
サク
サト
ツァ
ピカ
ユリウス
会い
優位
内田
待っ
現金
累計
絶え
英文
触媒
適合
##ナラ
フォーマ
バルブ
##ハンマド
##ツィオ
Mag
PA
アテネ
エントリー
マイン
中立
利根
動詞
同校
告示
国語
小柄
常連
本堂
負う
飛鳥
##rum
##シティ
##こと
##ある
##ヶ丘
サンディ
ジョニー
アーチ
ヴォル
グレゴ
プロテスタント
世田谷
AFC
Rob
by
ゆり
パト
ブレード
作風
四季
増やし
所要
押す
据え
書簡
神道
育ち
自覚
##ダウン
##AZ
ブラウ
プリンセス
Ag
LED
すす
まれ
もも
サロン
ナル
マント
リタ
中田
住吉
党首
招聘
本願
歌わ
津軽
百科
石垣
補強
##me
##エゴ
##デント
##enn
タイムズ
スケール
ハンドル
オハイオ
.,
8000
iP
うら
たた
スプリ
チーフ
ラフ
リュー
三塁
仕える
千歳
合法
和平
大事
常陸
弾き
新町
旗艦
機材
目論
目黒
蜂起
順番
##チカ
##がみ
ユーゴ
##・デ・
ばら
オム
コック
ハット
マニア
伊予
原始
採掘
校区
論じ
鉱物
##フルト
##way
##ML
アルミ
##ons
##ator
1881
もうけ
落とす
ボランティア
Air
Jr
とある
ぼう
ドコモ
パレード
ルパン
大森
本尊
民事
永久
犯行
田園
補償
見事
逃し
那須
門下
フランツ
##roid
とくに
"(
As
じょ
アパ
ハミ
パチンコ
リム
レク
位相
勧告
因子
市電
幽霊
残存
理念
西宮
転写
重い
##ke
##DA
##マラ
##ハウス
##和田
オリックス
チェル
フロア
クリスチャン
起きる
インディーズ
School
じゅん
ミステリー
International
ヴェネツィア
DF
ぎょう
タケ
ノット
ポスター
一角
主砲
伊賀
会合
公司
名所
大社
日付
永禄
測量
講習
輩出
連装
##ラーズ
##cl
##ンジュ
みなみ
##リューション
AG
ゴミ
バト
フロン
ポニー
中津
八木
博し
呪文
学芸
森田
船長
行進
西川
高岡
##ロコ
##fer
ボーイズ
ファミコン
次いで
アレクサンドル
6000
BE
スモ
加算
大石
崩れ
手塚
盆地
被っ
警官
遂行
那覇
金剛
鉄筋
##カーン
107
##ans
147
##サンダー
##ッケー
たくさん
アウグ
ケネ
シンク
ハヤ
バブル
三好
入会
官位
屋上
川島
換装
暴行
服部
美容
返り
野党
順序
フォト
##ファン
オーディオ
あきら
at
のぞ
サマー
タラ
ドナルド
ペルー
ボケ
従う
欠場
流入
計測
##ョー
##ya
##pl
##切れ
##押し
##返り
112
アンソ
アップデート
入れ替え
##ESS
ください
MUSIC
ex
せき
イカ
ツッコ
メイク
初版
取れ
台頭
四郎
小売
常勤
桐生
生没
田原
素晴
##ゥス
##下ろし
##サギ
##ゆみ
フランシス
ラインナップ
モンテ
ブリュ
トゥー
MVP
One
すけ
わか
仲良
北軍
南端
専修
専務
植え
相違
真言
組ま
脱走
解明
触れる
重点
##シナ
##のり
##ピング
フェニックス
ヴィン
マルコ
##ARD
##AGE
アルメニア
スタンダード
FF
いん
シップ
一目
便宜
北上
南京
国産
子爵
小沢
帯び
御殿
暴動
知れ
茶屋
鳥居
組み立て
##ema
のりば
WBA
ray
エマ
デバイス
ブッシュ
ボルト
一塁
代官
僧侶
免疫
回っ
始発
就く
慕容
指数
東亜
生理
秋山
行か
読書
赤字
追撃
難民
領事
##返っ
##ディス
##ローラ
ジェン
ナビゲ
Mr
UC
アビ
ゴースト
リバー
上がり
丹波
休暇
吸い
大夫
実体
帰る
廃校
有形
痛み
破損
祖先
豪華
運休
金子
##ナウ
##レア
##ald
220
ウィキ
##ラスカ
エンジェル
分かれる
##グラフ
レジスタ
Open
生没年
CA
ha
pro
がら
スラム
テー
ベクトル
リック
下げ
二塁
偉大
全曲
加熱
厩舎
奇妙
左手
広まっ
後世
旋回
治世
焦点
移る
##und
##ジング
148
##ita
アーキ
オートバイ
アントニオ
モニター
ねじ
ゆめ
デルタ
刻ま
同居
太守
掌握
支える
正常
決断
独裁
録画
閣僚
##リッツ
##BI
##ケイ
##KI
##わしい
##ヌー
113
##ink
##トリウム
カプセル
あだ名
GS
たろう
なつ
イブ
テイラー
ネク
大川
少尉
尼崎
斬り
氏族
積ん
紙幣
虐待
転送
通知
進展
運び
鈴鹿
鎮座
##ッタン
##61
##ype
##ビィ
##エス
##ードン
アルカ
##ony
フォーム
フェン
##ヴァル
##ンタム
Inc
##III
目覚め
Pre
Part
ウス
ボーン
一色
八重
公安
勾配
受付
塗り
多発
容器
待機
有数
校名
特有
##・ベ
##二郎
##キンス
##ツォ
##デリック
##じょう
キャップ
キャッシュ
こうとう
##フェクト
プリキュア
ドラゴンズ
イエロー
めぐみ
Day
LP
Mo
Per
ささ
アンジェ
ビア
代数
任せ
千里
原稿
大関
実証
導体
挿絵
時空
液晶
略奪
石橋
追悼
青葉
首席
鳥羽
##td
##ウマ
##わす
##ボーン
ジョセフ
アップル
DM
にほん
スープ
ハナ
ミカ
両側
乗用
南口
定住
常磐
得票
最長
本館
継ぐ
麻薬
##ピュ
アルト
間違え
SN
こども
ふれ
ドッグ
ホップ
井戸
債権
名門
基幹
幾何
従兄
成る
放置
木曽
武術
永井
演算
片側
迎撃
陽子
鶴見
##rist
##やま
##ナ・
##ma
##ヶ原
##焼き
##0000
##orn
クラフト
##ウンテン
カルロス
スケジュール
ユーゴスラ
Mic
pl
たつ
チーズ
リサ
伝わっ
内装
勘違い
媒体
射程
慣習
揃っ
有無
有人
木下
水雷
知能
蓄積
襲名
運ば
選び
邸宅
酒造
首脳
##ーヌ
##・リーグ
##46
##49
アクア
フレーズ
きら
ハンス
バッテ
ワク
全日
内藤
利点
如来
岩崎
方形
概要
破産
管内
納言
行える
語源
諦め
長老
魔界
##・ザ
##ニウム
##かわ
JRA
オブジェクト
##able
エンターテインメント
イリノイ
シベリア
750
RA
Tom
re
くに
サマ
ハド
パウ
多額
家政
弥生
投下
担任
有罪
牧野
立憲
自国
還元
##殺し
1800
##イトン
フォックス
つながり
Android
Wii
ケンタッキー
Bo
UP
ぐらい
エッセイ
クモ
コーン
テオ
ビクター
ブドウ
古河
回し
在来
失踪
役目
日高
載せ
##ナンド
##・フ
##タス
##UL
##UD
ユニフォーム
めぐる
ふるさと
すご
ばん
モス
予言
北野
原発
司祭
喫煙
強引
斜め
本家
究極
色彩
軽い
道中
頂上
##ごと
##せい
日本橋
フォール
##ited
フェリ
1860
##ッケン
はじめて
ワーナー
JST
MR
NG
NFL
Sw
la
ジル
協奏
喜び
大原
島式
数列
本気
現職
田舎
遠隔
銃撃
食用
高麗
##・アル
##ana
ともない
フェラー
ジェイム
ダイエー
1877
##ement
アドバイス
手がける
コンパクト
Sou
かかり
がた
オマ
ホリ
ホッケー
一宮
中尉
交わし
依然
倉敷
商会
擁護
本多
樺太
生育
系譜
進軍
醸造
食糧
##・ミ
##換える
137
##ener
フランソ
引き分け
##ファイ
ベルク
##osh
##ave
インディアナ
コーポレーション
Aut
Ltd
カタル
キラ
セラー
テネ
ログ
公衆
南軍
収穫
基調
孤立
学制
小児
投じ
明神
書院
朝倉
本州
正統
燃え
生体
男優
繋がる
薬品
親しま
通い
進水
集まる
青色
##ラード
##バース
##立た
ニュージャ
##ヴィー
ヴィクトリア
シェイ
ウィルソン
ハインリヒ
NEWS
マケドニア
ケネディ
MG
Pa
セックス
パパ
不死
他者
元老
口癖
学部
尾崎
山内
工夫
御所
擁立
教職
民放
稽古
薬学
親善
誘わ
越える
迫っ
逸話
高地
##ys
##レータ
コンプレ
240
Ann
南北朝
##rans
でしょう
##ハウゼン
HT
さわ
エリート
グリー
テック
付随
侵害
出血
合金
在日
天満
婚姻
導い
市道
曹操
松岡
直営
輝い
面会
高温
##ラシ
##AI
##ニティ
##lex
##ava
##ECT
満たし
見舞わ
バッテリー
BBC
War
えい
エグ
ソックス
ナー
ナトリウム
フレイ
俳句
写本
採取
播磨
新曲
書物
村田
樹脂
歓迎
消失
減っ
王家
血管
豊島
転生
##グアイ
##YS
##落ち
##ームス
クラッシュ
引き上げ
入り口
バーグ
ビートルズ
あらか
はし
ひょう
ウズ
コク
セリエ
主教
冷房
勇気
小樽
成年
教える
水田
浸透
穏やか
踏切
難しく
##作り
マーガ
##ATO
OB
おじ
エナ
カツ
クマ
ゲリラ
ザクセン
モジュール
下野
保っ
切る
割れ
営む
川村
招か
決まり
決まる
異例
相棒
真田
競艇
鎮守
鑑定
##リヤ
##ニッシュ
##ミナ
##払い
ウィーク
##ENT
ノーベル
小田急
気づい
Linux
アルゴリズム
ユーゴスラビア
DX
Net
ROM
なに
エビ
ブン
ミスター
レバー
信託
告発
国体
意気
控訴
最速
木製
次長
混同
緑地
複線
追う
麻生
##アミ
##ベール
##つか
ハイパー
##ALL
トロント
プラスチック
スティーブ
ドロップ
ニュージャージー
Do
Pe
VTR
ZERO
ふさ
スナ
スロット
ボイ
モナ
上旬
商船
対局
山陰
日比
死に
親しく
観戦
造形
##CO
##・レ
##box
##マックス
##MO
##はや
126
##ino
210
アルファベット
ちょっと
AA
CV
Can
あえて
うつ
デッド
デビル
トス
ナス
ニア
バンタム
上限
公正
反し
宮古
斜面
柔らか
武力
母艦
無償
特攻
窒素
系図
色々
複製
親族
##ロメ
##ゥル
##タゴ
##延び
さらなる
ジェリー
ホームズ
ハードウェア
ノア
八十
器具
地蔵
大砲
本機
機銃
歩い
玉川
破棄
立花
製鉄
順調
##リッジ
##ric
##ナード
##より
##デラ
##デレ
##ンドウ
ファーム
138
131
ストレス
ブラザーズ
チェロ
ダイア
支払う
伸びる
It
We
はん
パブ
ブース
ホスト
一生
出番
動い
勝つ
弱く
後援
愛人
改題
政令
柔軟
砂糖
聖人
腹部
駿河
##ントロ
ドラマー
##ental
リンカーン
マネー
ペーパー
NASA
タバコ
久留米
BC
JP
TC
ヒント
他方
体型
修業
出世
単体
右腕
和名
小室
布告
次期
総統
舞鶴
菅原
訪ね
蹴り
迫る
階層
##GP
##きん
##えん
##もう
##ッチャー
シャイ
スクエア
##ブリッド
オルガン
まんが
Night
あて
けんど
アシュ
ノイ
ヘー
ランス
一新
健一
別々
収納
図鑑
増殖
大内
意義
援軍
桃山
湾岸
番手
視察
豊川
##ler
##モント
##並み
スペクトル
##ンガム
ギャング
Ele
FS
おん
か国
みたい
ムハンマド
一門
一揆
代役
円盤
占拠
史学
堆積
好物
孤児
年上
感動
新興
注釈
浮世
特権
王室
県庁
踏まえ
遺族
静か
##テラン
##テージ
##がれ
##じり
129
キャノン
##IDE
かわい
エフエム
あらかじめ
Em
GL
Je
きち
パキスタン
ヒップ
マール
ミク
処置
化け
原案
台地
嫉妬
愛好
末裔
松江
致命
解剖
赤外
郵政
##ビット
##55
スターリン
##フェンス
プラハ
##ute
リン酸
デイリー
リュウ
駆けつけ
カテゴリ
カテゴリー
ブロー
ラッセル
不二
京浜
出港
向い
岡村
打つ
持株
日露
次女
河野
百合
皇族
足立
金山
##ダーズ
##ual
タービン
ハーバード
カタログ
アミノ
気付い
ONE
GB
ハリス
ビジュアル
中西
中性
国旗
女流
微分
狩猟
祭神
通じる
遭い
##ng
##TER
##ッテル
##・ダ
##ごう
##ガメ
##ハッタン
##じみ
##小路
プロセッサ
フィー
ドラッグ
パラダ
SHOW
めぐっ
シューティング
セールス
フォーマット
きわ
カ月
タム
テール
トリック
ニール
ポッド
ロッド
二郎
他国
初等
回線
対談
州都
巫女
断っ
皮切り
襲っ
語尾
邪魔
集積
##ーシ
##・ヘ
##ンスキー
グルメ
##ason
クローン
Star
グローブ
受け継い
Ro
コモン
フレン
ラク
再選
営利
嫌っ
家具
対馬
山手
新井
縄文
返し
追求
運ぶ
##アンス
##ピット
##デイ
フォワード
いっぱい
マンハッタン
1883
ウォーカー
アレックス
##ution
ワンダー
ニコラ
イラストレーター
見つける
マーガレット
SR
ne
こい
キッド
スウィ
センサー
ゾイド
亜種
包括
単発
反省
図ら
封入
差異
年表
戻し
直ちに
若松
途上
連敗
金色
電信
預け
##ムシ
##ren
##スロ
##メンタル
フェス
ハイブリッド
アフガニ
知り合っ
差し替え
エキス
WORLD
アフガニスタン
Her
Har
Res
cl
はい
コパ
シール
ハワード
伝記
地裁
展覧
煙突
腫瘍
陸地
馬車
##DL
##之介
##もそ
##ato
##alk
アイアン
ステン
マンチェスター
アンチ
ムスリム
BD
PK
そもそ
オース
主将
仕方
党員
外来
太刀
志村
戻す
拡散
攻勢
断層
新制
旋律
矢野
築き
精密
覚悟
遅い
高額
##リッシュ
フォート
乗り換え
追い詰め
ちょうど
Amer
まるで
取り戻す
上手く
パレスチナ
そもそも
ver
たどり
カセット
ネズミ
ベテラン
マック
ラック
レバ
免除
動かす
反論
多彩
大友
家事
巡回
工藤
新書
歩く
温暖
片岡
片方
真宗
難波
##ソタ
##なら
114
##ari
##ータル
マイナス
クルーズ
大将軍
##落とし
IM
OR
くま
ホン
ルーズ
争う
交え
仕上げ
凍結
受託
強豪
指向
挑ん
援護
王族
目立っ
結城
自在
裕福
買う
除外
隠さ
風俗
飾る
養護
##ブール
コンタ
##ater
打ち切り
みなと
##バイバル
ムーア
National
たて
テリー
ヌー
ハーン
プエ
以南
免れ
公明
剣術
増刊
大村
未明
板橋
栄え
汎用
見出し
遂に
頼朝
##ゾナ
##づくり
コンポ
アンケート
##ファレンス
追い込ま
たとえ
カタルーニャ
Sk
WA
ぜん
れん
イド
バレン
リカ
リハ
中高
列伝
増やす
大師
実務
幻想
政界
本殿
松浦
灰色
答える
細かい
繋がり
長尾
題名
##レージ
##らぎ
##リーガ
##ットン
ウェーブ
コロニー
パラメ
ヤマハ
ツッコミ
MHz
To
ひど
アオ
ウン
シンプル
セグ
デヴィッド
主翼
仮名
伝道
使命
半径
南米
同誌
型式
天平
平原
幸福
戻さ
村立
枚数
理工
盗賊
詳しい
赤軍
高雄
##to
少なかっ
ナポリ
マニュアル
320
SW
あつ
ひた
ぶつ
アセ
オファー
カミ
セク
リフト
与党
仲介
佐竹
入選
厚い
嫡男
寛文
屋外
当社
授け
改変
本校
母方
永田
登記
等級
長州
##テール
##ラート
##ner
##ru
##・マン
##form
##キース
##去っ
ジャンク
##ンジー
##リンク
ジェノ
サイバー
##eth
作り出し
サスペン
セーラー
オレゴン
そっくり
ひがし
スネ
先述
刺史
参事
含める
外し
好調
家畜
惹か
気分
現し
直流
相馬
笑っ
素直
西経
要員
遺構
##・ボ
##ピオ
1850
##インズ
ディフェン
ティム
コロラド
エンターテイメント
NPO
Dav
FW
アソ
カエ
デカ
ピック
ラマ
亜科
交互
代用
任天
元来
全土
全滅
出動
分泌
名声
完璧
左腕
店長
愛する
撤回
日系
朗読
硫黄
継ぎ
農学
部員
##ビアン
##って
##XT
##デュ
取り除
ウィング
ウォール
Super
メダリスト
CEO
くじ
下さ
人体
今川
執り
夏休み
大国
放ち
海老
考察
肯定
通告
野口
閉校
集結
##リッド
##ブライ
##・メ
##コブ
##さま
##通し
コンボ
146
##oss
フラワー
生み出す
MB
うけ
ひさ
エウ
オットー
ゴードン
デトロ
ボム
ボンバー
マート
常設
打た
次回
没収
混ぜ
皇室
相応
知恵
聖職
見守
造成
電報
##しょう
##pm
##ズエラ
##メーション
##じっ
##ANG
国内外
ユーザ
ルーキー
ダウンタウン
相模原
天王寺
ミネソタ
Records
ゼネラル
デトロイト
たば
ひめ
ひかり
ハイド
ボトル
マザー
メリ
久米
加茂
北極
四方
園芸
増築
小牧
常時
志摩
炭鉱
聴い
見下
親戚
道徳
降水
養父
骨格
##リントン
##les
##サイド
オーガ
グルジア
ヴァー
いかに
テクノロジー
っぽい
ROCK
au
des
さと
まき
ろく
イグ
クビ
サポーター
シチ
ハッピー
不利
代わる
函数
厳格
恨み
極東
樹木
渋滞
琵琶
疑惑
発光
積載
趣旨
軽く
進路
陣地
領有
##ブック
##ナタ
##yd
##ins
ステレオ
##リオール
##chn
450
のび太
ワクチン
リハビリ
7000
PP
しめ
ずれ
ふみ
もはや
オックス
ホセ
ルク
レポート
人文
北村
可動
土俵
封鎖
弾頭
後漢
携わる
救わ
決闘
生誕
留守
石器
舞踊
適当
鋭い
防空
高価
##rit
##・リ
##ノム
##オニア
##ケー
##que
##消し
##ano
ブルク
##ents
おかげ
クイーンズ
アムステル
カロライナ
フェラーリ
ER
FO
かき
がく
ホーク
ルカ
侯爵
劣る
合弁
喜多
寿司
弁当
役人
搬送
新羅
模索
水面
深め
異性
病死
築城
米子
練馬
西尾
課税
諸説
通報
速く
陥る
食材
飼い
##ロド
##ラルド
##LC
##しょ
##ニウス
ライアン
フェザー
サイエンス
##red
##チャル
グラフィ
合わせる
##ull
ハンドボール
ヤンキース
ウォルター
Pol
ac
おは
かえ
コング
ゴッド
シリ
マウンテン
ユリ
レート
再発
北端
単式
合う
復刻
戯曲
数千
減らし
負い
高圧
##パール
##GB
##継ぎ
##YA
フィッシュ
シャープ
チェン
##テンベルク
Art
アリゾナ
WWE
尽くし
フランソワ
コンプレックス
At
Bill
はや
ふり
イケ
冷凍
出羽
出家
原産
及ば
周回
多岐
夜行
字幕
強大
当事
最悪
民法
特色
移す
講和
譲っ
遊園
鉱業
離れる
飲ん
高かっ
##グマ
アルマ
##ンダル
アンドリュー
立てる
ファイターズ
アベニュー
カスタム
PH
エム
ガイア
ドミ
バッハ
パワ
一橋
下ろし
休養
優しく
天地
寝台
渡す
百済
補正
##らん
リーガ
いったん
##ism
##ブリッジ
Ang
引っ越し
ジャーナル
ベネズエラ
##ネイロ
PDF
am
ゆっくり
アテナ
エヴァ
グラム
サテ
スティック
トミー
パルス
ポーズ
ロジャー
別荘
別冊
右衛門
嘉永
専任
有田
特設
甘い
町長
経費
能登
通用
遺言
高まり
##ラビア
##aj
##ien
なくし
##inc
ファクトリー
バスク
知らさ
##ings
スカート
ニコライ
もたらさ
フィルハー
閉じ込め
手伝い
クラウド
University
Tour
くり
すい
だら
ジオン
ドック
ユキ
主権
主席
主婦
会う
余裕
北斗
南朝
去る
双葉
各々
堤防
導く
弾圧
徴収
成熟
所管
書紀
武家
洗礼
減らす
男の子
稲葉
立方
誇っ
足り
近所
食物
##air
##por
##わい
##ニカル
##ぼる
プロペラ
##ーマル
1867
スキャ
スズキ
成し遂
振る舞い
ハミルトン
Disc
Mc
Rad
Sec
かす
なな
よば
アーツ
ゲオ
シーク
トルク
ムラ
克服
公職
国府
土砂
地盤
当てる
志向
戦法
捧げ
断片
景気
書道
最短
津山
流す
灯台
異母
白川
硬貨
確信
築か
続行
遅延
##・セ
##タナ
##だし
##むね
キャス
ウェア
アクセ
アトラ
ヘルメット
Black
まさに
ミシシ
ミシガン
ミズーリ
バッファ
IR
ふたり
イマ
ケリー
サザン
タコ
テラ
トール
マナ
ヨン
体質
使節
参拝
哲也
報復
墓所
娯楽
宗家
形容
志望
悟空
投げる
春季
着任
祈り
造営
頼み
駐留
##バリー
##キサ
##ヒル
引き受け
##ヴィエ
プラズマ
カンザス
##ersion
フォーラム
カメラマン
チョウ
トレイン
おおむね
William
di
つづ
どころ
バウ
上層
上越
伊丹
休刊
営ん
大崎
寄稿
小池
応え
意匠
愛国
掃除
村山
氷河
産出
睡眠
給与
置換
脱落
膨大
荒木
藤本
賛同
##ram
##乗り
##振り
Christ
##oph
ソロモン
なんて
いかなる
##IGHT
ウェルター
##uck
いろいろ
フロンティア
サスペンション
TE
あず
あげる
どん
キエフ
サード
ブリティ
伯父
使徒
公使
千秋
反動
告げる
密着
広東
待つ
怒っ
救い
文法
早川
条項
決済
法政
混雑
釜山
電灯
##ロイ
##・フォ
##ニバル
##ан
##越え
##リーニ
ジェーン
1862
エアロ
亡くなる
テクニック
Project
メガネ
##シュタット
MD
feat
is
ギルド
ネス
ムシ
何故
充電
制裁
刺さ
匹敵
台数
基督
大敗
奉納
山川
浄化
火薬
無駄
特例
犯し
織り
職場
草津
落合
要し
語学
転移
除籍
##ラフ
##na
##ソール
##IB
##ぎり
##ボルン
##本木
##付い
##遣い
##十郎
##any
コンゴ
アドルフ
落ちる
マクド
だいがく
まつわる
おこなっ
カーン
サヨ
ダメ
トキ
ナノ
中枢
争っ
事変
低減
勝者
北欧
原爆
収める
哺乳
塩化
失脚
子女
対話
小麦
山村
旧姓
満点
理科
立案
調印
貯金
##コム
##sch
##っぱ
##51
##じて
サイク
Stud
付き合い
作り上げ
楽しみ
楽しめる
試みる
Colle
レインボー
イレブン
Red
et
さす
シリン
スチ
ネック
ビタミン
ラバ
代謝
仮定
信念
児玉
反転
志賀
手掛ける
指輪
曜日
潜在
無数
留置
皮肉
組成
途絶
金髪
長け
門司
##rap
##CH
##レナ
##ニール
##ばら
##oup
トリプル
ルートヴィヒ
##テナンス
##ンジャーズ
取り組む
アンダーソン
エレクトリック
TH
htt
チョン
ツェ
テム
パズル
ラング
ルビー
三条
喜劇
囚人
大垣
巡査
散歩
文藝
松戸
源流
稼動
空き
遠い
##・ト
##コク
##sc
##もっ
124
##ンドー
##inal
##ane
アルバニア
フェイ
##ジャネイロ
1865
フォーミュ
Geor
コンスタンティ
テネシー
たばこ
アムステルダム
いと
つぶ
カワ
テナント
ドット
亡き
優等
剥奪
同梱
名物
国営
奇襲
安置
抹消
日活
都営
青少
フランチャ
ランナー
##iver
プロトコル
バナナ
仲良く
青少年
GE
High
Mon
しら
エリー
ルス
レジェ
ヵ月
太夫
店員
拷問
提督
牛乳
生駒
竹田
胞子
豪雨
輝く
通訳
重臣
頼り
飛ん
##ナート
##tr
123
##ディオ
クラウン
##サーチ
##ations
ファイア
フレンド
富士見
ケンブリッジ
ストローク
CBC
みゆき
やむ
アイン
カク
キラー
クワ
デート
ノック
ハマ
ハロー
バース
ラト
ロビー
中堅
任官
休憩
吾妻
天津
妄想
宰相
愛用
打倒
救っ
本山
杉山
添加
無罪
特命
衛門
財閥
閉館
集約
魚類
##まち
受け入れる
インク
ISS
いずみ
1864
##チューム
折り返し
ケーキ
インパクト
Xbox
あす
かし
カヴァー
ソウ
ツリー
ドレ
フック
ヘッセン
マシ
ロイド
凱旋
出展
固体
大沢
学期
尊重
常任
年始
断絶
暗い
民謡
為替
祀る
結核
群れ
良かっ
西南
警報
進入
遮断
選帝
遺物
##ger
##まね
受け取る
フランシスコ
スタメン
サーバー
サーカス
##ヴィッチ
持ち帰
##フェース
レーサー
330
ファイブ
1863
##aka
アスレ
ヒューストン
コスチューム
##ology
モロッコ
アーキテク
CB
どおり
ヒュ
ポリス
レアル
以っ
入試
処女
売っ
弾丸
於い
点数
点在
直樹
真空
着け
総数
舗装
貯蔵
転属
逃げる
##トス
##ギリ
##FE
##ゲート
##ミッション
144
マーシャル
ビルマ
レイク
##ASH
リンゴ
引き継ぎ
##ーマーケット
うさ
なろう
イザ
イニング
ミルク
リマ
レフ
中古
会派
元和
合わ
吉岡
商売
定番
小銃
屋内
強烈
往来
未遂
水源
無名
直結
知人
砲弾
羽根
見習
資材
頭脳
養殖
魔導
##ッリ
##しゅ
##ダース
##ヨー
##サンス
##めき
##ск
キャニオン
取り壊
230
コーラ
##ータイ
ローリング
##テルブルク
##ONG
呼び名
##バイザー
フランクフルト
##ッスン
メンテナンス
スライド
スーパーマーケット
EAN
Fac
イース
ナチ
ハッチ
バリー
バッグ
ホス
ボロ
仕立て
傑作
勤める
回る
大勢
対外
川内
年長
所沢
抽出
有志
歌人
殴り
生殖
積分
納め
編制
除け
驚い
##クシ
##ev
##やり
##ノキ
##コード
##レックス
##ートー
インテル
チャー
チャーリー
ステータス
サイモン
オリエ
007
立ち向
スピーカー
フレデリック
550
グラント
テロップ
フランクリン
メロディー
キン肉
取り扱う
ニンテン
ヴォーカル
カザフ
Hot
Life
Vo
ウサギ
オズ
カモ
シス
ホルン
一流
一瞬
不幸
世論
休業
佐倉
分ける
召集
右岸
同窓
基部
変装
大介
奄美
帯広
待合
指標
晴れ
沼田
等しい
織物
育つ
豊後
起因
辺境
速い
遥か
野望
##ior
##ネーション
##ぐち
##付き
##out
##amb
##ONE
フェルディ
アレクサンダー
ヨハネ
ブリティッシュ
Bro
Count
Don
GH
Mot
SNS
うど
リプレイ
レンジ
ロータ
乗合
儀礼
喜ん
土浦
巡礼
急性
慣れ
探知
東郷
物件
留まり
白井
神秘
西郷
退け
醤油
預金
魔神
##cy
##ダス
##IZ
##ホルム
##ディーン
キャロル
##ローグ
レイアウト
##ショップ
無くなっ
引き継ぐ
近づく
リタイア
Girl
MM
jp
ぐる
てい
カープ
ゼン
ルーツ
下水
乱入
充分
動揺
参画
合っ
天狗
孤独
実習
摂津
日経
汽船
物産
画策
短調
脅迫
葛飾
設ける
谷川
軽巡
離陸
黒色
##co
##GA
##ニク
##がけ
122
プロフェ
ファイン
ストン
コロム
1848
あいだ
素晴らしい
ミシシッピ
DA
GN
Tok
くろ
まこと
ゆる
アデ
トーン
ナッシュ
ペドロ
三国
並み
内科
原画
始末
属す
崩御
幅員
急死
悲しみ
手順
更なる
有害
洗脳
渡さ
近辺
達人
飼っ
騒音
##リッヒ
##ペスト
##ンドル
ライス
切り離
Reg
##OCA
パナマ
チョコレート
及ぼす
ふれあい
アズ
アレン
イヌ
エチオ
オールド
クア
コナン
サビ
サング
ゼル
パトリック
ユウ
ヨル
レモン
佐渡
右投
多々
宇部
巡り
左派
改宗
架け
派閥
石灰
線形
聖母
聴取
腕前
自家
装填
阿蘇
##ルティング
##ナギ
##・ル
##メリカ
##ステン
##ision
##ATE
シンセ
スパルタ
飛び出し
ストライク
リオデ
アトラクション
フォーミュラ
アング
ジミー
ホース
マッ
ロブ
ワゴン
上原
係る
促す
冷戦
勝率
天野
奉仕
届か
平家
慎重
挟ま
栗原
炭酸
犬種
獲物
留め
納入
素子
耐性
背面
花園
補充
西山
連立
釈迦
開園
隼人
##スパ
##FF
##91
##ボス
チェス
マーチ
もらえる
NPB
モントリオール
マクロス
きわめて
シチリア
コロムビア
Pet
WD
あゆみ
ざわ
やく
エッジ
ソナタ
ノリ
ラボ
交番
住職
保つ
北見
収束
大江
大胆
密接
居城
巧み
市中
慢性
戸籍
接収
明和
沼津
派手
版画
町立
疎開
疑わ
福知
義理
衣服
見抜
託し
負荷
鋳造
##カナ
##ka
##ジック
##こん
##ニクス
##ツキ
##ミントン
##ストル
##レーヌ
インフラ
##ンプソン
移り住
スパイダー
ナムコ
エチオピア
リオデジャネイロ
Win
アゼル
アラスカ
マシュー
三原
初心
原曲
増田
宣告
対岸
意欲
明記
有用
校内
桑田
河合
激突
県民
細い
##・ファ
##ソニック
##ボロ
##プリング
なくなり
アルバート
クロウ
いわき
##UND
エストニア
Apple
アウグスト
ジェイムズ
Er
from
イサ
コカ
ベール
モア
何者
刺し
単身
天明
天台
対潜
帰宅
座っ
張っ
本能
東ドイツ
松島
極め
機密
特筆
番付
眠り
終始
薄く
読ま
達也
陥り
鳴門
##ral
##lic
##ダラ
##パル
##ザール
##てい
##ガタ
##サレム
##ずら
##が丘
##直さ
##連れ
この世
##ードル
##ーツァ
スカパー
キャンセル
##orts
プライド
テンポ
クライアント
Eng
MAX
アポロ
サヨナラ
Dream
Min
Nor
Ter
ソフィア
ダート
ハチ
リヒ
リヴァ
ワープ
備前
内外
制式
勧誘
大洋
山麓
広義
恒例
扮し
支局
新造
洋画
火器
発作
祀ら
誘致
賞賛
進撃
部署
配達
雇わ
##クリ
##CA
##uro
##ha
##きょう
##きゅう
##ボウ
##ミッド
##ラーゼ
引き換え
##ama
1866
カンボ
セントル
##ific
インストール
聞こえ
FOR
Java
きた
グライ
シマ
メリット
モーション
リサーチ
乃木
仮称
全権
南下
変貌
宇野
年下
幼虫
慰安
握っ
撤廃
有り
未知
田代
突起
話者
車掌
逃れる
隕石
馬鹿
##ビシオン
##メガ
ジャニーズ
チャーチ
ウィス
ランチャー
落ち着い
つくる
過ぎる
シアトル
##lymp
レシピ
ハドソン
パラダイス
650
Best
LT
Val
きみ
さし
はた
オイ
ガム
クィ
サバ
テイル
バビ
ビュ
ラヴ
下級
供養
再戦
叢書
史実
吊り
問う
摂政
日清
権現
監禁
直列
精力
絶賛
自走
解禁
通話
連行
遡る
郡内
鉄砲
開山
間に
阿弥
陰陽
鶴岡
##・イン
##さき
##ティエ
ウォン
##ura
##ジャース
1830
キューブ
受け継が
いまだ
生き残っ
サンディエゴ
Micros
福知山
GK
bl
なみ
サタ
バド
ピュ
フン
ヘブライ
マフィア
モーツァ
ルノー
不法
信玄
出陣
加古
動かし
各所
合宿
執事
実父
強め
新党
武者
物流
発進
破る
##ナール
##・ム
##ソス
##ble
##56
##プライ
##ич
ファラ
260
マイアミ
フライト
##ブリエル
##バイジャン
##ーニュ
##URO
##ブレム
##んじゃ
ブロードウェイ
細長い
AF
TAK
ウラン
ケルン
ピッツ
メド
内包
動か
古賀
名簿
城壁
子音
岩石
崇拝
悩まさ
敢行
架かる
田口
社殿
私鉄
終わら
若く
藩領
表向き
詩集
跳ね
遭っ
黒川
##gh
##さつ
##かう
##ese
##デンブルク
##チェン
ミニゲーム
キングス
トレーナー
プライム
クライマックス
スロバキア
ミシェル
ヨーゼフ
ネルソン
Associ
うどん
アゼルバイジャン
カンボジア
NEC
アリー
サハ
センス
タグ
ナウ
ノード
ラファ
公平
処罰
分配
商用
噴射
土屋
堀江
大平
大同
宮川
小西
崩し
工廠
廃業
推し
摩擦
漁港
番外
真似
聞かさ
自慢
興奮
踊る
過酷
風土
風貌
飛車
鬼太郎
黒髪
##カム
##・ガ
##ヘル
##グリ
##ゃく
##張っ
マルク
ミュージアム
##ンパイア
クレア
バルカン
プリント
##ICE
デイヴィッド
UFO
##board
ディフェンダー
GA
LS
MAR
Pi
POP
Sol
un
コナミ
パンタ
ホーン
ボイラー
ミャン
ヤー
一説
一条
包ま
名残
吐き
奥州
家電
左岸
意外
操業
本文
椎名
水族
河北
深川
満ち
照射
狙わ
病理
神楽
競う
西田
調べる
辺り
遊ん
##ex
##oot
##ッダ
##ッテン
##IVE
##ぐり
##プール
##デンス
アルフレ
##フィス
シャッター
1861
##イクル
もらえ
##REAM
トライアル
##コースティック
オタク
オックスフォード
わかり
カニ
スカル
ホモ
優勢
公言
分断
券売
却下
収蔵
国宝
応答
抱える
旭日
消息
清掃
湿地
濃い
生地
米沢
紳士
罰金
臨海
行こう
視野
##ラノ
##・ソ
##ゲイ
##ばん
##ざし
##ざい
アルミニ
##フォーク
##ett
ローラ
クローズ
ビルボード
カップル
ウォーズ
##urn
Charl
ペンギン
Rev
エスカ
ヒルズ
アイスランド
##ELL
##IME
トマト
ブラウザ
フランチャイズ
ミャンマー
-(
LC
LA
LAN
MX
Mod
Olymp
なぞ
アコースティック
コト
コイル
フアン
ミハ
不当
入国
公団
写像
厚く
器用
安土
宝暦
屈指
州道
工法
庄内
律令
手配
支出
早々
村長
松永
水深
添え
経っ
若き
融資
貼り
退治
酷似
開花
香取
##・ウ
##・ヴィ
##DP
##キス
##戻し
なくなる
154
##バータ
##ニアン
ディープ
オーラ
フォント
##ouse
##ille
エルサレム
Inter
まとめる
つくり
生み出さ
セレクション
メカニズム
チェコスロ
マニラ
サウジア
パナソニック
ピラミッド
ウズベ
モーツァルト
Des
MON
SG
アワード
係数
全英
分家
台東
大物
大門
宿舎
尻尾
店主
招く
採集
新庄
本戦
海運
浸水
準急
火炎
片山
補完
赴き
転身
首領
##TH
##レク
##ぐれ
##ずみ
##祭り
##沿い
##ティウス
ライド
オーダー
アイオ
クレーン
ヴェスト
ヒューマン
ホルモン
ルネサンス
JS
you
づくり
アザ
オト
ギブ
クス
テイク
ベートー
上回っ
中身
付録
以北
兄妹
党派
六本木
分立
北海
放火
波動
準じ
火事
献上
紀州
結社
荒廃
見込み
議事
迅速
退場
長門
##ris
##・ポ
##シマ
##タニア
##パルト
##あき
##がき
##ストリ
ファンド
ディーン
入れ替
##ショウ
ヴェー
ヴォルフ
ボスニア
苦しみ
セミナー
いすゞ
成し遂げ
サウジアラビア
Fe
OK
Sal
mg
net
くさ
はく
へい
ヒメ
ミノ
亀山
伊那
信州
全盛
共用
即座
厚木
古来
同点
同郡
坂井
子役
導き
店頭
戦果
格子
水分
波長
消す
痛め
発想
童話
筐体
自伝
迂回
那珂
飛騨
馬身
騒ぎ
##TO
##ii
##ッペン
##ドア
##ミュー
##じん
##高い
アルビ
キャサ
2500
ジョイ
シュル
バーチャル
##ストラクター
ファイナ
##ッケル
コスプレ
埋め立て
YOU
ライブラリ
GU
ざん
ブレス
マテ
ヶ国
事象
便利
外さ
市原
平地
延暦
新編
旧来
木星
業者
模倣
熱血
発酵
砲台
硬式
祇園
移築
調和
貝塚
負債
貧しい
転入
送電
長寿
開口
飲む
##ブランド
##ッホ
##レクト
##ベーション
##れん
##のう
##サリー
##ero
コーディ
いくら
##reet
使い手
トリノ
まとも
エイリアン
PSP
メルセ
めぐり
##フレーズ
Good
エディション
不可欠
SMAP
近づい
カジノ
WEB
ロータリー
セントルイス
アルミニウム
Ber
Fi
KD
じんじゃ
イニ
ウマ
グスタ
セダン
マヌ
リーズ
一味
中略
低地
出航
反抗
反響
反する
味噌
大破
大映
対比
弾道
悩ん
旧称
桑名
無敵
発刊
篠原
芦屋
規約
説教
迷宮
離党
##カゲ
##げん
##ッロ
##ベイ
##エイ
##ネスコ
ブリテン
クリミア
なさい
サラリー
プラント
トランスミッション
スロベニア
面白い
Microsoft
Ev
LE
REC
くす
っ子
イズ
キネマ
サントリー
デリ
ナレーター
ノイズ
バタ
ヒート
一応
全編
全力
公卿
利便
寺社
屋台
帰郷
後続
必死
悪役
握り
教場
新社
本書
溶接
炎上
疲労
発案
直面
紅葉
製紙
迫ら
##aur
##67
##さか
##マンド
##15
##々しい
ジャワ
##ene
持ち込ん
ローレンス
##ンプトン
ハイム
ウォーク
フルート
アカウント
メモリー
ハリケ
マツダ
ステンレス
(-
Power
Rock
Sun
だし
アッシ
グー
ゴス
プー
共闘
困っ
国軍
大黒
安心
届く
巡航
抽象
掃海
揺れ
暴露
望月
生ん
直人
知多
蔵書
襲う
運ん
鍛え
隷下
##リナ
##フー
##ケス
##行き
205
アルプス
カービィ
ヴィー
mmF
呼び出し
ギャン
##メンテ
楽しん
アーキテクチャ
メルセデス
Cent
にゃ
ぬい
キッズ
キノコ
ソラ
タス
ビック
別人
古今
宮中
平塚
擁し
攻防
月間
木場
無形
真剣
納得
結末
臨ん
関税
頭取
##ブリア
##za
##ばり
##びき
リリーフ
プラグ
バラード
キログラム
Arm
テロリスト
ソーシャル
Club
キャッチフレーズ
エンタープライズ
##クタール
生き残り
デラックス
Sing
von
うん
すり
エステ
オリン
カレ
ジーン
タク
マヤ
ミヤ
一言
一括
両端
促し
公判
出自
収監
商学
土井
壊れ
実子
尋ね
征伐
手足
掲げる
擁する
整え
歌声
洗浄
浪人
焼い
痕跡
直属
祈願
稼ぎ
茶色
薔薇
衰え
要領
転倒
連ね
遠ざ
部落
麻衣
##lo
##・ナ
##コック
##オリ
フィクション
##ety
江戸川
カンファレンス
TOP
バンコク
ATM
##ミュエル
たまに
コミュニケーションズ
ヤクザ
ベーシスト
国分寺
クリエイティブ
ヴァージョン
プエルト
NATO
VR
VHS
ふう
アライ
ギー
ゴロ
マフ
一派
三遊
伴奏
低温
分かり
前部
古巣
埠頭
売ら
大通り
奔走
奨学
客観
察知
新宮
日韓
日刊
最盛
有権
浅い
淡水
溶け
燃費
発令
粘土
自爆
菩提
葬ら
西条
赴い
返済
逝去
部数
金利
飯塚
麻痺
##カミ
##TP
##・ホ
##ビウス
##IK
##まけ
##おか
132
ショーン
##チャーズ
アクセント
パイオニア
追いかけ
コンピレーション
STAR
##ike
モノレール
にくく
日比谷
キャサリン
Mer
Mich
Port
Up
be
あふ
われ
ガブリエル
パド
ヒール
ピストン
ベビー
公示
半球
受注
吉村
守ら
平定
急増
抗体
接着
救命
新城
旗揚げ
有明
治水
法華
準拠
白河
縁起
育てる
胸部
自機
艦名
観念
話さ
諜報
赴く
路上
開閉
関ヶ原
防護
隔離
頼ま
顔面
##ロア
##エール
##ガンダ
##まつ
##助け
フィニッシュ
ストーム
##イアント
しゃべ
JIS
Mor
Sum
Song
TM
con
うか
がり
つと
もろ
アワー
イヴ
カマ
サミュエル
ピンチ
ヘクタール
ロッキ
中頃
側室
八百
反逆
大東
失格
始祖
宿主
山間
帝都
待遇
恐慌
担い
提言
極度
肺炎
行け
証人
赤穂
軌間
重なっ
長身
青島
鳩山
##カリスト
##・タ
##セラ
##IAL
##モー
キャピ
インフル
##ole
さんま
起こさ
ハイビジョン
カルシウム
Int
つなぐ
##イオス
##ハーゲン
BMW
##ield
コンタクト
サテライト
フィルハーモニー
Award
])
web
そろ
オア
スレ
ソマ
パク
マディ
モデ
ユネスコ
リット
ルース
ルドルフ
レター
丹後
優子
勝敗
地主
幕下
慕っ
旧暦
栄誉
母国
毒性
浅井
絞り
美し
西端
見積
見かけ
配合
驚異
##OG
##ツキー
##ポル
##食い
##着く
大きかっ
オーブ
サンクト
##INAL
繰り出す
##ebook
巻き起こ
##チョウ
ストライキ
##ship
Il
King
いざ
はち
ほっ
アストロ
カネ
シルク
セメント
ホウ
ミツ
中年
偽装
入札
参道
含有
呈し
国々
夢見
大抵
委任
安永
寸法
岩田
年寄
延び
戦役
望み
死神
民兵
気絶
水色
流星
激戦
片手
県都
破片
紫色
荘園
辿り
進言
霊場
高槻
##ロラ
##ネード
##ベス
##ザース
##ごろ
##ボリ
##直す
##利き
コンペ
134
##ital
##ola
ローラー
繰り返さ
アドバイザー
カリブ
デジモン
コントラ
ノルマン
満たさ
ロマンス
由紀夫
##rumental
サングラス
Bas
Hi
OH
UR
ガリア
ギン
ギュ
ケータイ
シング
タキ
ハラ
ペリー
ミキ
ロスト
一騎
出せ
前衛
可変
台本
器官
噴出
四条
増備
増幅
大工
天竜
完走
戸塚
星座
消火
滝川
盗み
目録
知行
腐敗
血圧
視力
親方
許容
谷口
返上
退い
里見
重ねる
鍛冶
飛躍
##カレ
##オラ
##っ子
##メス
##サキ
##まわり
##ントス
270
ジェル
アクティブ
##ody
##エンザ
##ella
Blue
フライング
CLUB
ブルックリン
レバノン
アソシエ
Tokyo
Cy
my
tr
しげ
ウッ
ゴシック
スミ
デビッド
ブースター
ボビー
レッスン
代議
八代
向こう
宇和
尾道
平井
延喜
撮り
教義
欠け
民家
流派
点検
秀樹
立派
翌週
迷い
迷惑
遊ぶ
遭難
##カーズ
##ンスト
##・シュ
##ソウ
##グレ
##work
##ザル
##分ける
##ボーグ
アルジェリア
##its
##ush
##app
##ocal
##スティック
クリップ
マクシ
##OLD
やり取り
コスモ
おこなわ
Techn
イーグルス
従兄弟
David
Del
PM
かま
みせ
オロ
セクション
バーナ
レム
代打
体長
信徒
信任
八尾
司る
吉良
多重
官職
山東
彦根
志し
換算
敦賀
本番
校章
演歌
激減
特記
狭義
端子
覆う
隠す
飾ら
驚く
##ンシー
##くら
##ノミ
##AWA
##バリ
##なぎ
##メール
##サラ
##ペテルブルク
##ヶ崎
スタンプ
##フォー
##aster
ティン
アレル
スパイク
##rain
1855
ジェイソン
間違っ
パラメータ
ゲオルク
ベートーヴェン
me
よこ
アディ
アロー
スチュ
ハブ
ヒン
リール
リポート
介石
分化
回送
国政
土岐
大木
富岡
建っ
微妙
接合
敬意
新川
水晶
派出
溶岩
爆笑
狭く
神明
終焉
脱線
蝦夷
解像
討論
訳さ
説い
辞書
連射
隆盛
##ヤーズ
##vel
##コーン
##さく
##ドキ
##トリア
##タリ
##バット
##メア
##メイ
##77
##94
##ワット
##ろす
##強い
##ューズ
ありが
プロポ
##eng
##ats
ステア
フェロー
思い出し
パーソナリティー
##ッシブ
ANN
かたち
##ちゃん
ニュートン
リモコン
チェコスロバキア
CON
UH
rpm
カバ
クック
マッカー
三沢
人造
個展
初音
回廊
地表
宛て
宮田
将兵
従わ
成す
撃た
操り
改める
校地
池上
法科
漏れ
特務
産経
硫酸
総監
義経
莫大
訴える
迫害
追及
速力
長浜
静止
願っ
飛来
飛ばし
魔人
##ye
##の内
##キル
##ぶり
##降り
アルテ
ディビジョン
##ico
サンプル
##フェルト
パーカー
書き下ろし
いきなり
吹き飛
GHQ
EL
えり
ねこ
まな
カオス
コマー
サリ
ナオ
ネパール
ブーツ
マキシ
マッカ
ヨシ
リエ
ロベルト
亀田
刑法
北川
吉祥
同曲
堀川
失業
寄進
承継
承諾
放浪
日吉
村人
機雷
消極
潜伏
父子
祖国
美味
萩原
返す
音色
##くる
##オウ
##トロン
##ワフ
##レーツ
##ican
##シャワ
さらさ
##ーツク
クロード
ジョン・
建て替え
1854
クーパー
買い物
クリエイター
おはよう
Lu
OG
オバマ
一夜
世襲
叫び
噛み
売春
寺田
平坦
従え
憲兵
手数
打診
支障
死傷
母子
渡米
照準
称賛
紡績
見受け
誓い
諸侯
貞観
載っ
連想
野戦
金星
闘い
##ギャ
##がん
##ペディア
##変わり
##ランカ
バックアップ
キャンディ
ヘルマン
パーソナル
トレードマーク
おもちゃ
スローガン
ストックホルム
佐久間
スプリント
Paul
ハリケーン
EV
SK
Soft
なれる
らい
アリア
エプ
エステル
オウ
デパート
ノウ
ベラ
メット
メチル
モモ
モダン
乱れ
人型
体色
充て
入線
共々
協調
同然
吹田
売店
外相
小坂
幕張
年俸
手助け
挑発
日テレ
普遍
櫻井
止まり
止まっ
猶予
産卵
短歌
筑後
築地
築造
給油
義勇
血統
西岸
讃岐
部会
##ling
##ボク
##ミール
##на
##リーブ
アルベルト
サンパ
シュヴァ
カルチャー
ハンブルク
アトリエ
ましょう
USA
たまたま
黄色い
ディスカ
オークション
オークランド
##マイカ
プロトタイプ
Robert
バレンシア
RAD
TW
えん
ほの
もて
キース
ケベック
ダブリン
マウ
今治
共鳴
劇作
勅令
原点
吉原
城山
尚書
東邦
目玉
秋季
突出
綴り
艦載
見れ
遠山
錬金
閉塞
高砂
##la
##・ユ
##コミ
##さり
##タリア
##YP
##受ける
1300
##atch
##ative
##rop
ちなむ
##ーグル
支払わ
##キャップ
盛り込ま
EMI
執り行
CT
TP
ちか
イナ
エカ
エッグ
オラ
ザク
ダニー
チア
ドリル
ハニー
マッド
ユン
不信
剣士
国造
嫌悪
宅地
容赦
少々
平山
御前
愛宕
打数
投獄
施策
有能
末端
本庄
果物
海中
王宮
発砲
祝福
策略
糖尿
脊椎
芥川
課長
隙間
高句
##チド
##ッティング
##タケ
##ハル
##千代
10000
ジャスティ
ジャイアント
##ates
##キュラ
ブレイン
Mark
ヨハネス
インフルエンザ
コマーシャル
高句麗
Af
Che
City
ME
Sil
さやか
みき
らく
イオ
ケープ
シモン
ニーズ
パケット
パニック
ボディー
メロン
リッジ
レプ
修学
兵衛
切手
匿名
希少
強奪
抹殺
推力
文久
曲名
歩き
江東
洋子
瑞宝
田川
着ぐるみ
碑文
聖地
蘇生
貧乏
走者
農園
雷撃
高射
##リノ
##リップ
##ッガー
##ci
##コウ
##ham
##バナ
##バンス
##めん
##JP
##寄っ
##売り
ファント
フィア
チャップ
ディフェンス
アンディ
ジョナ
バースト
スクウェア
##ジーミル
オスカー
フットサル
##ideo
Adv
インストゥル
サラリーマン
三遊亭
("
850
HS
KBS
LINE
Med
OC
Of
おっ
カラス
ドリー
バズ
ピュー
マスト
ミッチ
リブ
ルーク
不調
久々
争奪
今年
公転
劇的
去り
四十
地雷
外装
奇数
廉価
抜群
日報
旧道
更生
棄却
構える
法制
瑞穂
直撃
称え
議決
高尾
##ダスト
##ze
##バーズ
##UP
##ワース
##本松
##かかっ
##だん
##持つ
153
##リンゲン
クラリ
シャドウ
アーノ
クロム
##IST
##OSS
フェルナンド
エンジニアリング
ジュース
バトラー
アンソニー
RECOR
アッシリア
ぬいぐるみ
PART
San
Tri
さとう
へん
カズ
クイン
ソリューション
ゾウ
ブダ
モト
レット
ヴュル
乗船
入所
共感
各局
名作
四角
在職
均一
基板
墳丘
女装
学業
川端
担保
石巻
簡素
素顔
絡み
耐震
艦橋
講堂
豪族
貸切
配偶
銃器
開ける
##カップ
##クレ
##ロロ
##タリー
##タイトル
##uel
##よい
##あげ
##奈子
##ージョ
152
##んどう
ハイウェイ
乗り場
ギャル
##ACE
スキン
##ファーレン
バンクーバー
IBF
浮かぶ
リバウンド
久保田
望ましい
秋葉原
エグゼ
イースタン
Association
いな
アヤ
ウリ
カサ
クロン
サリー
タウ
ベラル
一線
一因
並列
処方
出かけ
回帰
団長
図柄
培養
外出
多賀
宇多
島原
広州
手動
支那
杉田
柔術
横田
河南
浮き
生母
生計
用法
異端
眠っ
知性
神父
穀物
覚える
調停
養老
##テー
##we
##ツネ
##ゴス
##ちょう
##QU
##ンドルフ
##ery
リーフ
##esents
グルー
スペック
001
Street
生き延び
フレッシュ
Champ
行き来
フラッグ
1859
トロフィー
##ルタント
Thom
##berg
クリーク
五十嵐
all
クリストファー
エナジー
グスタフ
DAY
FBI
Lib
PAS
アッパー
イワ
ノーマル
メイト
リソ
上段
並木
京急
人柄
伝送
体当たり
借用
内定
助成
医院
図り
場外
定か
岩国
建武
待た
拠れ
整形
本島
来場
柳川
樋口
浅間
独身
生田
石室
石碑
私的
紀行
細工
自力
良き
英名
薬局
賃貸
頼ん
##カワ
##コト
##mb
##bur
##の丸
##75
ジャングル
ライプ
フランチェ
アイコン
##ンバーグ
##ATA
##ORY
作り出す
みなし
せんしゅ
みずほ
サックス
ダウ
ノブ
不況
人名
信条
健全
催さ
千種
南道
声楽
変態
夜明け
宇佐
室蘭
容認
強姦
後見
振付
明王
東端
淀川
相性
給食
纏っ
襲来
視界
親しい
解く
超過
越中
重用
風船
高まる
##テット
##フマン
##rid
##ww
##よそ
##86
##プテ
##まま
##かえ
##言葉
コンチ
##ense
##ors
ジュリア
##unes
340
パンツ
##ブリュ
コンサルタント
アミューズ
フリゲート
気づか
クリーブランド
ワルシャワ
アイオワ
MY
Time
しず
ケント
ゲノム
コメンテ
ザ・
スパー
テラス
ペナル
ペトロ
レンガ
一転
上皇
下総
人道
六角
唱える
塩基
実権
局所
山野
市域
弦楽
従属
畜産
社交
移送
窮地
納税
組長
翌月
聴く
補欠
踏ん
転居
退去
野々
飲酒
##oint
##留め
##りん
##ser
##らう
##デックス
##どか
キャバ
162
301
勝ち点
フルーツ
ジャンヌ
スケッチ
トランペット
振り回
デュオ
落とさ
ディーラー
ウルグアイ
ルーズベルト
だらけ
サンクトペテルブルク
PI
der
ひき
ふん
カエル
ギミック
コリン
ジーク
ダス
ヘルス
万博
下がっ
両腕
含み
坂田
尾根
戴冠
揶揄
曹洞
楽しい
武藤
熱海
特産
神谷
神官
空挺
築く
細かく
絶大
翻弄
見込ま
都督
配分
開港
阿武
##ブー
##こく
##サック
##そり
##ホーム
##返る
##渡す
##ンドロ
フェルト
サイボーグ
##ンクス
シュトゥ
##ival
1858
Amaz
ポルシェ
Enter
ALL
ゲルマン
org
及ぼし
オムニ
カザフスタン
アルフレッド
サンパウロ
ヴュルテンベルク
BA
Bre
BAS
CIA
NBC
Os
WH
www
おば
つば
ひこ
アクト
オセ
スカー
ダラス
モリス
ラント
ルシ
ルター
ル・マン
レガ
上総
上洛
乱闘
仕掛ける
付着
例年
共作
兵装
取れる
大泉
大火
大小
女児
学派
学力
宝永
広め
戦績
日没
注ぐ
産駒
発端
裕子
訂正
請願
近海
通達
進級
鋼鉄
関根
降車
顕微
##ヴル
##ILE
##牟田
##モデル
ジャス
211
ディン
##レイク
ウェイン
##ッツォ
##ARA
カルタゴ
##ジャック
1840
エイジ
##ルツェ
Spec
ポップス
インストゥルメンタル
コメンテーター
Av
AW
RT
WBO
かおり
スム
バッド
ブックス
ホロ
ララ
リコ
丁寧
倒壊
和夫
売る
強要
採ら
政宗
文京
断ら
減速
無断
磁場
神崎
絵師
連鎖
重く
野心
降る
顕彰
驚き
魔族
##tain
##込める
##向け
##去る
知らせ
ウェン
##ジアナ
オリオン
いわく
乗り込ん
ファイヤー
エルンスト
##OME
グリップ
デュエル
##ツィヒ
サブタイトル
Suica
ギャラクシー
ミッドフィール
スワローズ
ナビゲーター
ジャンクション
Facebook
パンタグラフ
ミッドフィールダー
Bu
Cal
CBS
Gener
Soci
Tre
あま
しみ
のん
らしき
バファ
ペプ
ホープ
マダ
ユタ
ルン
万葉
伊集
全幅
公営
前頭
合作
変速
大麻
尽き
嵯峨
府道
強硬
強かっ
怖い
憑依
戦記
明示
明瞭
木戸
本丸
松村
極限
水着
江南
浮遊
混成
溶解
漁師
演目
男児
祭壇
空白
竜王
筑摩
肥前
西欧
解読
譲る
退却
邦題
開会
阿久
頼っ
養女
高値
黒海
##やき
##モト
##ゴラ
##巻き
##era
310
マルタ
スクロール
トリガー
アマゾン
マスターズ
よしもと
カイロ
スラヴ
いただ
ウラジーミル
レジェンド
阿弥陀
加古川
伊集院
HO
OL
Pal
SV
カノン
クエ
セネ
ネガ
ハノー
ヒンドゥ
ブタ
マロ
ラド
リナ
リオン
一層
万国
上尾
下っ
下田
代々木
伝導
入江
公論
出所
出兵
副官
勝て
原告
同調
咲く
四川
如く
届い
廃藩
張本
後円
怒ら
持参
松阪
欠席
正直
残党
毛皮
物事
苫小
荷重
軍曹
銘柄
馴染
##aut
##du
##コット
##ヴン
##ヘッド
##DI
##ホマ
##ぜん
##持っ
ジャマイカ
##ora
##ブルドン
ステッカー
バーデン
富士通
##illa
1856
##グラード
##OWN
おおよそ
メルボルン
シグナル
ピックアップ
ベラルーシ
苫小牧
おまけ
こころ
じい
すば
そら
つま
イアン
エラ
エニックス
カーター
コリ
ナナ
ヌード
プチ
ラッキー
京橋
京極
作物
入党
公用
坂口
天草
奮闘
岩倉
幕内
廃線
徳間
愛子
栄光
沢田
涼子
混在
瀕死
点灯
総括
船員
荒れ
遊戯
適正
銃身
麻布
##RO
##EP
##しめ
##71
##ра
##ий
##ざき
##おる
フランケン
##シャイン
シャワー
##ady
スクリュー
Str
アクセル
コンサルティング
デイヴィス
ガーディアン
フィルター
Angel
BP
EF
JFL
Mem
iT
iOS
ru
おや
べし
やさ
キプ
サバイバル
ワト
三味
不祥
両立
久美子
伝来
余剰
十郎
反則
四球
夕刊
太政
完封
布教
徴兵
思え
慕わ
折れ
拡幅
掘削
提起
文理
明言
欠陥
殲滅
気体
沈ん
法定
盗ん
直し
稲垣
素人
肥後
蛍光
見通し
警護
転々
遊歩
長安
陶器
響き
預言
飲ま
黎明
##チェル
##アム
##アメリカ
##やさ
##オーバー
##セックス
##ダード
##みつ
##98
##ペイ
##かつ
サイレント
スクラン
##AMA
セイバー
ポートランド
ウィンブルドン
譲り受け
すすめ
パブリック
http
プエルトリコ
ファントム
--
JO
Jose
NM
Park
ph
あけ
そん
ほく
イントロ
クオ
ゲッ
シラ
プス
ベンジャ
リル
レジャー
不倫
供与
停滞
刈谷
吉井
同県
国定
奥義
家人
強行
挟み
最寄
温厚
用地
目の
短大
礼儀
祈祷
立命
粛清
自害
致死
行え
軽井
近縁
通販
門人
集計
##ノル
##コフスキー
##たる
ジャッキー
##ナーレ
フィッシャー
##ローラー
スーダン
スクラ
プラチナ
カラーリング
Ref
シルエット
##ahoo
スティーブン
苦しん
ワイヤー
繰り広げる
MOV
シュタイン
たった
さかの
American
バッファロー
シリンダー
見習い
ピッツバーグ
軽井沢
DREAM
Hen
James
Miss
PT
Trans
かれ
ひな
ひまわり
アッシュ
カッター
ケビン
シネ
セクター
デコ
ベリ
リヤ
九十
休み
侍従
信越
優駿
先制
全勝
公家
共存
冗談
制動
唐津
国交
大連
天守
巻い
月面
本宮
格差
武帝
清朝
焼け
熱狂
秋元
素早く
艦首
花嫁
見出さ
貸出
青梅
##ラシア
##シズム
##ネンタル
##オロ
##ジロ
##ザック
##ガード
##ゲス
##代わり
##着き
##ほう
##曽根
アルティ
ジャム
ライカ
##ッチン
サンゴ
280
##olution
ウォッチ
##クスピア
480
モーリス
モーガン
エドガー
ナイジェリア
##ルンベルク
申し立て
##プスブルク
##ensis
気づき
滅ぼし
クォーター
途絶え
ベンジャミン
FU
VF
はつ
ばね
みか
よみ
イソ
カ所
キリン
タスク
ツィ
ハプスブルク
パチス
ビースト
フレー
ラオス
レズ
下層
両社
中道
健太
儲け
右派
因縁
嫌う
宣戦
小原
履歴
広範
後進
愛さ
拾っ
採っ
文脈
新報
昨年
杉並
母校
水谷
油圧
田島
疲れ
筒井
細部
肥料
解き
請け
辞し
連発
陣屋
##・プ
##ces
##パード
##ツェル
##ポー
##詰める
キャット
アンカー
##レンツェ
##uss
乗り出し
きっぷ
つなぎ
キャンベル
メモリアル
Serv
コンポーネ
パチスロ
Bel
LD
あかり
いや
いら
けれ
ふそう
よろ
アクター
エーカー
カント
サファ
サミット
シオン
タール
タイル
ハス
ヒドロ
ブエ
ベック
ボヘ
マタ
ラプ
レパート
上水
了承
五島
八郎
別途
半減
坊主
大別
天空
幽閉
患っ
授賞
根岸
水害
泥棒
流動
秒間
給付
美和
臨む
至り
解か
赤羽
進ま
都会
##gar
##ダンス
##重なる
##仮名
##ena
##ウェン
マルティ
パイレーツ
ニュルンベルク
滅ぼさ
ボウリング
RECORDS
Bi
GC
RK
Sim
VI
Yahoo
くち
しお
オクラ
コイ
コールド
サガ
ホールド
レッズ
停泊
共学
到来
勝目
半田
原宿
叙任
同種
同書
喋る
均衡
奈々
対等
庇護
手下
映し
棄権
業態
決算
準州
王冠
生還
祭祀
筑紫
腐食
臓器
色素
若年
藤岡
裏面
見逃
誠実
贈っ
連帯
長田
高倉
##カロ
##ael
##バチ
##バダ
##そく
##ぱら
##ディウス
##ンタイン
トラウマ
ティル
打ち出し
プリメ
##クラブ
##クラテス
パスワード
##ney
引き起こさ
ボルチ
シリアル
##irect
BLUE
かねて
シュタット
ブリュッセル
カクテル
County
Cap
Kn
RD
du
se
ばい
ナツ
バロック
マリーン
ヨウ
レシー
ワース
一躍
人力
付か
刷新
協賛
参与
妨げ
実弟
延べ
強固
本性
桑原
機首
熱い
皇女
終える
繊細
繋ぐ
自我
草原
著しい
長良
間際
限度
霧島
##LL
##yr
##マール
##ズス
##なじみ
##fl
##FT
##ずり
##ちょ
##ст
##JI
##去ら
ものまね
オーロラ
ストリー
アンモ
スターリング
持ち込ま
ユニーク
ルーシ
##ISS
つくら
##ーチャー
チューブ
PRO
いたずら
##ポリタン
グレゴリオ
のぞみ
NWA
fr
さつ
さよ
とれ
なめ
エラー
シノ
ノヴァ
バックス
パウロ
ロド
丸の内
乏しい
乗馬
伝播
健太郎
光明
兵役
円筒
吉備
同上
君臨
地味
坂上
宮沢
尾翼
戦災
批准
拡充
敗者
教材
景勝
杉本
松前
枢密
楽園
気球
水質
江川
着想
矢部
石狩
硬化
算出
結界
触手
造語
造園
選曲
青銅
##・ジ
##シリーズ
##メート
##ボルト
##ん坊
##もる
##かかる
##掛かり
142
1400
ストリーム
ウィンター
ウィンドウ
ジェームス
ジョゼフ
##デンティ
##モンテ
乗り物
カリウム
##ACT
##ITY
##OLL
##トゥス
##ルツブルク
ブレーブス
支払っ
シャーシ
##キャラ
##サイザー
Grand
おそれ
クランク
##press
スティーヴン
##ツィオーネ
ふさわしい
##デレラ
Radio
George
コンチネンタル
iTunes
レパートリー
ボルチモア
さよなら
JNN
KE
gr
ウイス
シスター
ダコ
ラ・
一大
上っ
保留
催眠
傷つけ
充当
入浴
冊子
北山
口座
台場
同好
大樹
居る
忍び
恋心
懸命
文禄
方位
架橋
検知
洗濯
流体
漁船
激化
緩やか
見知
貯水
近親
閣議
風味
黒澤
##チウム
##BL
##01
##ガルト
##ペス
##出そう
##伏せ
##止める
##ルトゥ
チャット
フォア
アンコール
サーチ
##amm
マーベル
スマイル
伊勢崎
ウルトラマン
ルイジアナ
ATP
United
NEXT
苦しめ
苦しむ
ミリオン
スリップ
API
ファルコン
わざと
ブンデス
Billboard
アテナイ
プロフェッ
バファローズ
Act
Pat
XX
かわり
ウシ
キヨ
コソ
スナイ
タモリ
チキン
トク
ニセ
バター
プファ
ヘヴィ
ポピュ
ミッキー
リフ
余地
内面
分身
商社
執着
夜中
大船
太宰
安保
完備
尾上
幼年
新星
新線
施す
欲望
残酷
海南
満洲
滑らか
熱田
産物
田町
精製
経理
覆い
覆面
見なし
買わ
転職
随時
隠蔽
雑貨
面接
須賀
高台
黒部
##ムント
##・キ
##シェル
##り物
##らわ
##たか
##倒し
##enter
ディック
##ッチャ
引き取ら
##イスター
トラベル
もっぱら
##ANT
プレゼン
ひとみ
##ima
ますます
##プトン
フラット
つくっ
##ADE
いち早く
パスポート
テクニカル
レオポ
##プラノ
手伝っ
Company
こだわり
Corpor
ロビンソン
アレルギー
Ap
CN
Fight
NDL
Rich
Sl
Tw
ft
mus
しな
カッコ
スルー
チュニ
ニャン
ハビ
バッジ
パトロ
マヨ
マッサ
ミミ
メッツ
交友
休館
停戦
光景
初年
割っ
受領
台中
合間
堀内
夕張
大当たり
妥当
小金
帝王
戦中
手帳
抜く
握る
断面
時事
格付け
決心
浩二
皆無
終着
終末
苗字
視線
語彙
近似
銃弾
長島
震度
##チー
##RA
##OO
##・ビ
##SU
##いん
##ギニア
##bum
##83
##97
##ハマ
##じま
##寄せる
ことば
あっさり
##ated
フィット
ランカ
ローテーション
##ote
シンデレラ
##ript
##AME
##ッキリ
SPEC
逃げ出し
シャーロット
ミラクル
Heart
ツーリング
ドキュメント
カレンダー
ヴェストファーレン
ブンデスリーガ
GIR
Mart
del
がる
とし
イヤ
ギガ
クリック
クリーン
クレーター
ズボン
パッド
ベータ
ローター
不審
仮設
備中
元祖
分社
切ら
助演
可視
命じる
因む
安い
岩井
店内
殺到
水銀
汽車
清算
漬け
災い
脆弱
膨張
虚偽
観覧
誤差
賀茂
長井
離反
##ノラマ
##ベガス
##ta
##uch
##ball
##嫌い
1700
フィレンツェ
ジョッキー
トラップ
##ural
乗り越え
クレオ
##ヴェー
シェフ
ノーザン
##obile
Arch
##iko
ドラムス
取り扱っ
アブドゥ
News
WAVE
シンセサイザー
KC
Sn
do
しげる
たど
たかし
セス
ドバイ
モテ
モビル
ラベル
光子
判別
別当
加納
劣化
効力
勝山
右打
右京
問屋
国歌
大岡
嫌わ
官庁
工兵
弱体
形質
恵比
憎悪
戦勝
捕縛
推計
揃え
敗走
教習
本流
来訪
汚れ
治癒
沿革
演芸
炎症
監獄
砲身
綬章
編み
耕作
褒め
豊中
邪悪
都城
醍醐
重巡
電器
音波
黒崎
##チレン
##ーカ
##ij
##ッラー
##・ヒ
##cin
##ガラ
##85
##ワート
##がす
ウィー
アニメーター
1853
1857
##アイランド
ガルシア
押さえ
メリーランド
コックピット
返り討ち
シークレット
マクドナルド
間に合わ
ありがとう
Champion
Amazon
ヒンドゥー
Max
ケニア
テュ
ミクロ
上川
上がら
中井
享年
伝授
全額
公子
兵員
匂い
北道
和彦
哲哉
在庫
地価
城南
大寺
妥協
家業
尼子
年限
幼なじみ
恵子
教鞭
新春
書誌
歌曲
歯車
浦安
消える
点火
王政
略し
発起
登校
益田
相関
組曲
線型
美しく
羽生
肉食
舞踏
艦上
行先
角田
議院
豆腐
貫く
貰っ
赤城
赤ん坊
銚子
門前
降っ
院内
難航
風刺
##テラ
##ラウ
##・ピ
##・ジャ
##たら
##MM
##プラー
##ナーゼ
チャック
##フィクション
アニマル
##フォルト
ウェイト
いわば
##eder
グラミー
##リエン
ちゃんねる
##END
##uber
1846
##OWER
##フスキ
いたる
しょく
Phil
##ittle
##チカット
イケメン
うさぎ
プロフェッショナル
DP
it
ال
さだ
はっ
ばし
ふし
クレー
クジラ
スバル
ドロー
バトン
メーター
リビア
ロット
三枝
上る
下降
主君
人魚
代償
入間
前夜
受講
同郷
同族
啓蒙
増発
大作
大家
奉公
奥田
字体
射出
山県
岡部
島内
後押し
感想
拝殿
沙汰
注射
注入
消耗
深海
犬山
畠山
番長
発効
芝生
若葉
若狭
藤村
製菓
誘惑
負わ
身近
通例
鉄路
陛下
隔週
離島
類型
##lin
##ベリ
##hone
##わざ
##81
##ゴメ
##残し
またがる
1820
受け止め
クラッチ
スタック
取りや
シャーマン
##キーパー
##ets
チェリー
##フェリー
ヴィラ
##ada
##リエット
アフター
ルーフ
書き込み
ヴェルディ
ラスベガス
アトランティック
コネチカット
MiG
あかね
ドミニカ
クラリネット
コンポーネント
NDLJP
パトロール
Alex
Fri
MAN
RB
Rem
TB
Ul
みらい
ウミ
コープ
コスタ
ヒカル
ピート
ペレ
モンタ
ラビ
下手
体積
例え
元号
内地
前向き
大雨
妻子
富豪
居酒
恐らく
文句
服役
検閲
水島
泣い
灌漑
登り
着物
立教
肥満
育児
街区
複素
誌上
賢者
起業
速報
連打
銀色
銅像
長者
鳥栖
##ノイド
##サム
##ボット
##HA
##代子
##まか
チャネル
アイデンティ
フォレスト
引き連れ
ステイ
ダイレクト
パーキング
Store
フラツィオーネ
##ファーソン
アトラス
デュアル
##ipp
エスパー
ペルシャ
Group
フィリップス
おもに
##iversary
出入口
インテリア
##ference
シェイクスピア
ブダペスト
けれど
オクラホマ
居酒屋
BN
Bir
End
EURO
Gal
JT
Li
Light
So
なだ
ほし
まえ
らし
カシ
カリス
クッパ
サタン
タフ
トレイ
ハープ
ヒラ
ブス
ブール
ボト
モンド
ロイス
中流
主戦
二宮
以西
傀儡
公害
半期
土産
廃墟
廊下
後悔
捕ら
日出
未亡
杉浦
村域
欠い
気質
江原
洛陽
渡航
用水
相場
着せ
磐田
絵柄
翌朝
血縁
規程
費やし
走ら
鉱石
銘打
鳴き
##リニスト
##ィー
##ネスト
##GE
##バサ
##ニット
##がた
##育て
##麻呂
プロパ
256
スタイ
取り外
ニューズ
ウェスタン
カーネル
##ッツァ
##ショナ
エンブレム
生き物
付き合っ
やっと
パンフ
トゥル
アトム
リアス
1803
ニコラス
スイング
レコーダー
カウンセ
教職員
宇和島
##ボクシング
未亡人
9000
FE
FNS
le
ml
qu
すく
ちん
づき
カフ
ザム
ザイ
シオ
ムン
リリ
レナ
レック
ロア
交配
仁川
値段
初恋
即興
原動
叔母
多種
寄せる
小国
川原
巨乳
帰属
常盤
度重なる
延岡
当面
急進
懇願
戦列
手首
捕鯨
撃つ
故人
新居
木更
染め
極秘
榎本
歩み
水槽
無力
落札
藩政
螺旋
規範
酒田
重度
鋼製
陸戦
頓挫
飛ばさ
##ロワ
##ロニア
##ол
##イェ
##gen
##ネーター
##グア
##by
##キウス
##ミド
##どころ
##置き
2022
受け付け
##シアム
##クトップ
持ち込み
##ジェスト
ローリー
ジュン
アクシ
ファイアー
##ICK
##erson
##ograp
##iew
クリニック
##ello
##ーチン
グリル
教え子
##ナンデス
メカニック
デスクトップ
##ストロング
メトロポリタン
当ては
Sci
Instit
マカオ
ライブラリー
スナック
立ち向かう
リットル
ペナルティ
Corporation
木更津
JF
Oper
sy
xx
やん
ウイン
デア
ピオ
マッハ
下北
側線
入港
共生
割譲
参詣
和子
回生
国教
城内
大成
導か
引か
後醍
恐ろ
手持ち
数量
早世
暴れ
月光
有線
株価
梗塞
沢村
物品
狩野
狭山
由美
目前
破滅
縦断
覆っ
誓っ
関口
陽性
面々
飛翔
##ais
##ek
##・ヴァ
##cess
##マイズ
##ゼー
##サード
##MI
##はら
##屋敷
204
ジャガー
##ister
##ータン
##let
##ough
持ち合わせ
##ily
カーニバル
シンシナ
ハンデ
スパーク
##ウィック
フォーカス
1852
SPOR
1849
FIA
組み合わせる
おこなう
スライダー
ダイナミック
見送ら
カブト
ジョルジュ
プファルツ
後醍醐
Boy
FINAL
Type
がかっ
くみ
さほど
はめ
ゼウス
トモ
ナガ
バング
フッ
ベス
両面
京子
偽造
凶暴
勝田
増資
大竹
大差
対艦
小数
抑圧
挙兵
捕え
捕まえ
探る
服用
林家
枠組み
極楽
次ぎ
海面
源泉
溶液
滑り
特捜
甲州
直下
着目
秘め
積雪
美里
羽目
裏腹
製鋼
観賞
訳語
請負
諮問
賢治
送付
部活
酒場
開場
養育
##ルカ
##ny
##der
##ck
##ベラ
##ぶさ
##ен
##離れ
##..
206
1100
コンプ
##ンジン
取り込ん
##ッチェ
##ンタリオ
##ANCE
乗り入れる
バラバラ
##AMP
クリントン
##ッカーズ
いちご
見つから
カタール
ノンフィクション
気付か
アサヒ
アキラ
イルカ
アームストロング
ヨルダン
乃木坂
ジョナサン
オムニバス
MOVIE
シンシナティ
HMS
Out
OEM
ps
オリーブ
クン
ハント
バチ
パッチ
パ・リーグ
ムーブ
メテ
レノン
下る
乗じ
亀井
休戦
伸ばす
催し
内乱
北原
十勝
各務
呼応
坂東
奥羽
宗像
小杉
左京
市外
幕僚
広げる
必然
恩恵
新橋
星団
柳生
津島
混血
無敗
町村
自発
苦悩
荒井
落城
補う
西野
誓う
釜石
阿南
陽気
難い
風間
騙さ
##レーン
##ゼーション
##ぶつ
##ゴール
##ユーズ
インフォ
コンコース
##icial
##ッチメント
ウェザー
##ret
こうじ
シュトラ
クロック
スクリ
追い込ん
USB
話し合い
メイキング
##っとり
NEO
タンカー
イーグル
サトシ
Thomas
Batt
Mel
RED
Version
West
ちゅ
てれ
ほり
イシ
イブン
エント
エアー
オホ
オメガ
オンタリオ
コバ
バディ
ミケ
ラルフ
リンパ
ロート
下表
元首
党内
八雲
准将
勤労
北魏
召し
同情
同区
名阪
基底
官邸
客船
役立つ
揚陸
敷か
有楽
正徳
残骸
氏名
水車
氾濫
監察
窃盗
総局
美穂
聖子
肝臓
若林
蒲生
蒸留
赤松
選任
配し
##li
##line
##合わさ
##キラ
##ヒド
##87
##ゴーニュ
##デール
##若松
##調べ
##払っ
143
取り消し
ニューオー
引き出し
##ional
ユーモア
ユーラシア
カンヌ
1851
インタフェース
デュエット
Ant
置き換える
とうきょう
##ILL
会津若松
ネイティブ
アバター
コンビニエンス
シンクロ
ウイスキー
パンフレット
おろ
きよ
アエ
アガ
エイト
エリス
オウム
キア
キミ
ジブ
ジア
デメ
ナックル
マンス
モラ
ワイヤ
上智
下宿
佐々
信夫
信じる
冷酷
分担
判例
刻印
古事
同化
向ける
困惑
土日
垂れ
壊し
外す
外壁
安城
実録
密集
州間
帰化
延宝
彼方
感度
手間
手形
正人
死因
水溶
沈黙
没落
治め
百姓
皐月
祝い
祭礼
福原
箕面
編著
著述
褒章
計量
軍務
軍需
鉄鋼
雲南
##テュ
##ロップ
##の中
##メンス
##ボラ
##歩い
##ラーレン
サンシャイン
フェンス
##フォーマー
サイパン
システムズ
501
レーニン
##ander
##ope
##エンヌ
ノーフォーク
モノクロ
##ナンシャル
春日部
アレクサンドリア
サスペ
エージェンシー
ボリビア
ニューオーリンズ
Fire
HC
Hol
Hist
Jun
Tur
kHz
pp
せつ
ぞく
つう
なで
ばあ
ぶっ
ゆず
アブラ
エックス
カンタ
ゴート
ゼミ
タカラ
デフォルト
トゲ
ナミ
ラット
ルクセン
ワニ
ワット
三陸
下着
下士
下段
下げる
不快
仏像
会戦
先手
光沢
全焼
分隊
南陽
口腔
因み
増す
多項
大町
子育て
実名
寄席
専業
感銘
憲章
戦史
新装
木津
枚方
桃太郎
桜木
植木
毎時
気配
海防
特製
甲賀
眠る
破れ
立像
竹中
筆記
網走
聴き
聴覚
英米
蒲田
見立て
託さ
試練
配当
高井
高津
##ロク
##ор
##ih
##ナダ
##ヤマ
##port
##レッタ
##ギア
##こみ
##95
##ぶん
##まじ
##リアー
受け取り
取り囲
果たせ
##ンチェ
##リオット
勝ち越し
ICOCA
Child
ルーカス
1842
トロイ
クロスオーバー
Your
Sports
テンション
チューナー
コスモス
ひろみ
レジスタンス
ネクスト
スチール
取り壊さ
マヌエル
請け負
AE
Big
DT
DIS
Fr
May
Rom
Roy
SB
YU
Ze
he
mod
つばさ
イク
オシ
グリン
サボ
テント
ヒゲ
ブリス
ペリ
ポット
リグ
ロドリ
下山
両用
両軍
予科
備後
傷害
写し
刺客
同線
和音
回顧
園内
大祭
寄宿
小豆
平壌
年鑑
心身
成形
明智
無双
煉瓦
爬虫
給料
置県
航続
萌え
躍進
過失
重工
野手
長髪
間近
闘士
飽和
高瀬
黒木
##イロ
##ノア
##ゥー
##ジスト
##之島
##ぞう
##差し
できれ
アルカリ
リーディング
ディヴィ
取り出し
ジョーカー
ソフトボール
##idae
見つかり
セレクト
ベンツ
働きかけ
##witch
浴びる
ツイッター
iPhone
Charles
ギャンブル
プリメーラ
Bur
Bab
Ca
Ep
Euro
NR
go
man
per
いじ
うめ
ぎん
ざい
ふと
エフェクト
コルト
ザル
スワン
デリー
ナンバ
ベロ
ボナ
ラピ
リセット
レグ
上山
丸い
丸亀
他界
体勢
保ち
健在
傾倒
公主
単線
台南
同法
商法
堂々
官吏
宮島
帝政
慈善
抜ける
提訴
断り
新道
日時
東岸
架線
独断
生後
突進
美貌
老舗
臭い
茨木
賭博
跨線
身柄
進駐
野沢
飛ばす
高見
魔道
鶴田
##リド
##しむ
##che
##ビナ
##GS
##ケープ
202
##ターズ
##レーティング
いっしょ
##ross
ローゼン
ダイジェスト
パーフェクト
フリート
グラハム
##oto
立ち会
##ルドー
##uth
ハンセン
##aki
グリッド
##endo
Class
アタッチメント
トランスフォーマー
ウェルズ
##ブレッド
##bert
ゴルゴ
Anniversary
オアシス
マディソン
ステアリング
マッカーサー
ポピュラー
Camp
FNN
Hel
KB
Lou
Ob
Sa
UD
WC
ab
がたい
じけん
わん
イモ
ハガ
パンダ
ベンガ
ポロ
ポーター
ミレ
メラ
上人
位階
優し
兼ねる
出願
分館
千鳥
国名
執っ
塩田
売場
夢中
好奇
委嘱
寒冷
尋問
所定
手当
時速
松任
板垣
機甲
残虐
済ま
湯沢
王権
甚大
画期
直訳
競り
緒方
脊髄
花弁
華族
遊牧
電極
面識
音速
##hr
##ko
##わう
##多摩
##サール
##モール
##びれ
##びん
133
##シュート
ニューイング
コースト
ジュール
##ula
アラバマ
##ICA
振り返っ
ヘルシン
サラブレッド
いちろう
送り出し
プライス
イエズス
とどめ
浴びせ
ストライカー
##フォンソ
カスタマイズ
聞こえる
ウズベキスタン
スチュワート
リソース
ボヘミア
ニューイングランド
Gi
GEN
Im
Mal
はり
ひい
ぶつけ
まみ
コマン
サメ
ソユーズ
トンプソン
ドリンク
ビクトリア
ホビー
リップ
レンジャーズ
上面
下落
主軸
互角
仲裁
停電
包み
台枠
叶わ
同心
困窮
壁画
夏目
委ね
富ん
富裕
少量
居留
巨体
帰投
弁天
急逝
振ら
数える
本間
本科
東名
桃子
構図
殺そう
法典
注い
球体
留まる
直行
直系
罷免
蜘蛛
誤認
豊岡
躊躇
軍部
遷都
郷里
魔獣
麻酔
##・アン
##76
##デシュ
##河内
##去り
##arm
##arth
ウィザード
ランニング
ブルゴーニュ
##ンガン
ビルド
立ち並
##aint
##OTO
##angu
ジョーダン
##チョフ
ガイドライン
デーモン
アダムズ
カウントダウン
可愛い
Office
デューク
ウィキペディア
モナコ
Elect
バドミントン
レプリカ
ルクセンブルク
Dan
ETC
Fer
FEST
Rail
Work
day
イト
キッチン
ケルト
シックス
ソプラノ
タイト
ドス
ド・
ビザン
ペダル
ラーン
リニア
リヨン
三鷹
事柄
光る
全仏
内心
出仕
列挙
利害
右足
同定
名跡
周防
囚われ
圧迫
地頭
士気
大牟田
存命
孵化
実物
密輸
寺島
小平
幸子
念仏
思惑
指針
挙句
揖斐
本所
森川
水沢
生家
産む
目さ
矢作
神事
老中
聖歌
裏側
製法
購買
赤く
軍医
農協
重なり
隆起
面影
騙し
骨髄
##ヤル
##コロ
##ダール
##AV
##マツ
##き出し
##ぐら
##ゲー
コンソール
リーマン
チャール
チャリティー
##itar
ベルン
##ティーノ
##ular
エドゥ
ゆうき
##URE
##iki
結びつい
クローバー
ベンチャー
Edition
##IVAL
明日香
White
アクセサリー
ミッチェル
目の当たり
Bell
KING
Lim
key
のう
みの
イデオ
キティ
ケイン
コモ
サニー
スン
テッド
ポテン
世の中
亜鉛
仙人
令嬢
全高
全廃
前世
加増
勇敢
卓越
収支
嗜好
国文
大仏
天理
定額
宴会
小石
山岡
平衡
悪人
懐疑
投影
振っ
改番
新鮮
旧式
東横
森本
気仙
水原
水没
漂流
熟練
熱中
病原
白馬
破ら
空調
給水
誘っ
調布
近傍
開基
阿賀
隠岐
電位
須磨
風力
飢饉
高官
黒く
黒幕
##リブ
##チックス
##ムナ
##・ペ
##・トゥ
##cript
##ware
##AX
##96
##モノ
##ポス
##暮らし
203
172
225
ジョアン
シュミット
ボーカリスト
打ち破
ロックン
##ira
ごとく
##ORE
370
アスリート
オペレーティング
747
1789
ゲイリー
スティール
ミステリ
WWF
ワークショップ
チンギス
いとこ
マシーン
ライプツィヒ
Special
Book
DOS
Ju
Land
Sam
VO
ひる
ひで
まどか
アユ
ジロ
セ・リーグ
ブイ
リンダ
上村
下がる
与野
中南
冷蔵
冷たい
南岸
卸売
名神
執拗
士族
大道
大倉
大柄
専売
弾く
新入
曾孫
様相
死な
水木
理性
環礁
異星
白浜
石山
粉砕
終日
統率
絶命
自生
自粛
舞い
茂木
葛西
表せる
金城
防備
雌雄
顔立ち
食肉
##ブリー
##ラール
##ラック
##アーズ
##iro
##ッレ
##スン
##xt
##be
##マイト
##こし
##ぶし
##町村
##ер
##掛かっ
##割り
##リアーズ
##リスタ
アイディア
引き渡さ
##ele
シャア
##アーノ
##ume
カルロ
##ショー
##チュエ
プログレ
##ublic
落ち込ん
##ッコロ
スイート
##ude
GPS
マグマ
振るわ
マネージメント
エレクトロ
IDOL
グアム
すずき
おとな
new
コンスタンティノ
ダコタ
コソボ
720
GOLD
HR
Jo
Kh
Sound
いで
にい
アントン
ウーマン
セーフ
ダック
デニス
トータル
ハッ
ペイント
ムル
ムック
レフェリー
低速
使役
倒れる
元町
勧請
北岸
原町
地層
天界
家出
小名
山名
山門
島々
市町村
平民
建つ
式内
懲戒
抱か
拳法
救世
旅人
日置
朝刊
未熟
末尾
枢機
河岸
泊地
町民
病床
登用
県境
秋月
税務
稼ぐ
緯度
美智
葉山
西原
長大
電荷
騎馬
鴨川
##クティ
##パイ
##ケ谷
##キナ
##モロコ
##蹴り
##ージョン
取り付ける
##カルド
##ilm
たいかい
ゴールキーパー
Inf
380
ジャンボ
フラグ
言い渡さ
##APP
掛け声
ブランデンブルク
##・ド・
HDD
カスティー
成り立つ
ギルバート
背負っ
ひどく
シリコン
アーノルド
CAT
Ever
MH
Pan
TT
Tor
Wr
fl
su
いこう
いとう
つね
ねえ
ゆい
よかっ
アウェー
エト
エコー
カド
ゲット
ソクラテス
タックル
テトラ
デンバー
ドニ
ヘレン
丹羽
久喜
二階
俳人
凶悪
原油
参列
叙せ
和尚
団員
埴輪
宝物
山王
岸和田
弘文
従前
御堂
応永
怪盗
怪力
愛車
慣例
捉える
掛川
新約
桜花
榊原
民生
永正
没年
海浜
現世
球技
眺め
絡ん
群島
老婆
脱獄
茶道
蓄え
藤堂
責め
赤ちゃん
足ら
辛い
農産
配線
重慶
間柄
限る
限っ
隔て
雇い
音節
頭角
##テック
##ford
##ME
##MP
##12
##放し
##恵子
##飾り
##ットガルト
チャイルド
起こら
ハーバー
##ste
スコープ
##グラウンド
スカイライン
春日井
ウイグル
すごい
カエサル
フェルディナント
アミューズメント
キプロス
恵比寿
サスペンス
Gold
LV
Over
Sur
UTC
Video
うみ
つぼ
のぼる
びょう
ぶら
めん
アゲ
イット
シエラ
ゼー
ナマ
バケ
パット
パブリ
レックス
ロク
上告
伐採
会堂
低かっ
修め
傲慢
加減
在り
変電
多量
大喜
嫡子
岩本
川田
市政
平氏
幸運
徳山
志す
戦功
投降
日和
日誌
有る
東国
栗田
森山
洗練
浙江
濃く
田畑
異議
病棟
症例
発熱
登頂
矯正
祀っ
精鋭
細く
葛城
被爆
農薬
追贈
造っ
部局
随筆
音頭
風習
高騰
黒沢
##テロ
##ムズ
##ソリ
##ネア
##すぐ
##ba
##マネ
##出る
##ón
##ヶ岳
キャッツ
インフレ
フィード
取り込ま
アンプ
##ファル
ジョーク
ローソン
ウォルト
プラモデル
##unt
フレッド
##クロス
セルゲイ
コントローラ
1843
1839
ATS
Show
トレーラー
送り込ん
Def
##iano
ヒューズ
パルマ
上り線
EXP
キックボクシング
##mann
コンパイラ
ニュート
トウモロコ
かぶっ
フェンダー
Jean
スキャンダル
キャスティング
North
Summer
Society
取りやめ
オホーツク
トウモロコシ
Cat
Direct
KA
no
ser
おし
こっ
れれ
イヴァン
カヤ
ザール
ジグ
セリ
タツ
ハサ
ブレン
ヘビ
ベジ
ラミ
ロッカー
一夫
下す
伏せ
便所
健二
光年
公方
切腹
別所
加害
吸気
城東
安達
心情
心得
忠告
悪事
成虫
携わり
支庁
整っ
暗躍
松坂
柏原
榴弾
機嫌
流路
減る
満期
物価
産ん
立山
綾瀬
総集
総武
聖徳
臨済
謙信
金持ち
驚か
高位
##アラ
##・フェ
##go
##GO
##ワル
##だち
##百合
##リータ
アルタ
##ange
インデックス
フィーチャー
##ette
ダイビング
シュガー
パーソン
コントローラー
Real
殺し屋
サムライ
抜け出し
ニーダー
スリランカ
気付き
レディース
DDT
カートリッジ
インテリ
Instrumental
ドレスデン
リサイクル
フランチェスコ
スクランブル
ヘルシンキ
Free
Ger
KS
Let
SUN
XP
co
くわ
ゆみ
アステ
エネ
コペン
サロ
サキ
スレッド
テンプル
ベオ
リキ
一向
万能
争わ
亜美
偶数
別称
南山
南緯
南宋
同位
吐く
圧勝
塩素
失速
宿場
寄港
尊氏
居合わせ
彼氏
快適
手話
打線
捧げる
明星
春風
暖房
本位
湖南
溶媒
滝沢
特訓
独り
生む
画質
県営
社屋
神名
童子
紫外
綺麗
花子
若宮
藤子
補習
要衝
軍令
輝き
逓信
速やか
過度
違和
野原
鍵盤
阻ま
面する
##ーキー
##ッダー
##コンド
##yle
##bps
##プタ
##ミオ
##16
##広島
##ぷり
##ートニー
163
##シュア
ディスコ
引き抜
引き取っ
##ンチャ
##irst
アドバンス
トリニティ
1841
オルガ
ルイージ
取り上げる
マグネ
とどまり
AND
クルーザー
チャイナ
FOX
キャピタル
プロポーズ
振り回さ
シュトゥットガルト
ハノーファー
SPECIAL
Di
DB
FX
Little
Mil
Ol
Pri
RX
RNA
Wal
WIN
res
かげ
くう
ぐち
ひばり
アリスト
エッ
カルト
クルス
コフ
ズーム
ソルト
タップ
デマンド
ドジャース
ハーツ
バートン
パープル
ベニ
リョウ
レベ
レポーター
不服
企て
侮辱
修繕
児島
出征
劉備
反復
叫ん
和也
品番
商務
団結
国債
多田
大理
大軍
大腸
失望
嫌気
学説
守山
宝島
弾い
慕う
戦況
改易
放題
文人
景色
曲げ
濡れ
申告
病弱
石見
私有
終身
練り
脅し
親しみ
車軸
車輛
転覆
逆襲
野中
長久
高円
##カール
##ク・
##フリー
##LA
##ッショ
##・ラー
##しゅう
##DER
##メディア
##之内
##進め
##里子
##加え
##ターニュ
チャーター
タイタン
スペル
サーブ
##olf
##ヴィッツ
持ち上げ
ヴァレ
##テルン
ジュリアン
##ters
##バルディア
カルボ
##サンブル
##キュラム
##over
トゥール
読み切り
かかわる
##レンジャー
スマッシュ
マクラーレン
1831
1818
クーペ
##チュード
##AYA
ACT
##ンバラ
取扱い
はじめる
プラットホーム
##ガスカル
##ネーヴ
スズメ
リベラル
NCID
目論む
ラバウル
ソマリア
マダガスカル
Joseph
BIG
Hal
HOT
Mad
Vis
いの
かさ
ちび
つぐ
びわ
ゆか
アノ
エメラ
トラス
ハプ
ピョ
ペイン
マナー
ミント
ヨット
ラッパー
三輪
世俗
亀裂
代金
分室
助力
千住
南町
反感
城郭
太一
安部
実効
或いは
振舞
掛かる
探求
操ら
放課
新製
日数
材質
正則
沈め
洋楽
爆風
片道
独奏
画素
着色
瞬時
破裂
穏健
経典
自律
蔵人
諸語
財源
足跡
軌跡
部材
静脈
頭蓋
##oon
##・テ
##システム
##gy
##マム
##ев
##ori
クララ
フィオ
ストー
ストレ
アイド
##クトン
持ち出し
チェンバ
ちゃっ
スピリッツ
切り札
ミニチュア
##ヴォル
##ーグナー
突き刺
MSX
##azz
comp
##落とさ
ダルマ
ハロルド
Island
マッカートニー
イデオロ
KT
Mont
SRC
Switch
]、
ござい
カリー
キレ
サザ
シティー
スギ
テュー
ピレ
ボット
ムード
メタン
モニュ
一同
三宮
人衆
俊介
俗称
倍率
偏見
再起
分署
化身
北島
各部
名字
否決
吹雪
呆れ
堀田
境遇
変革
学研
寺町
封建
平ら
心筋
悟り
撃っ
救難
本陣
東欧
検挙
模擬
沈着
減り
登る
目次
省庁
着い
稲田
終止
結集
美作
習い
菅野
被疑
裁定
長子
音符
願う
##カデ
##net
##rich
##RNA
##CD
##ノ島
##ドックス
##タム
##ジスタ
##ったり
##んぼ
##はし
##せつ
##盛り
ファステ
##カーナ
311
シャフト
アーバン
ブルターニュ
ジュエル
ジュネーヴ
##ids
もとより
プラトン
カリキュラム
ルーレット
スキャン
みなす
巻き込ん
##UST
申し入れ
カタカナ
サウスカロ
しのぶ
アジト
あすか
サタデー
ミハイル
RADIO
エカテ
コペンハーゲン
イデオロギー
サウスカロライナ
CI
FD
Na
POWER
Vir
VOL
WOW
いさ
そちら
だれ
ひみつ
みそ
わら
オク
オード
ケイト
コブラ
ゴット
サンスク
シク
トラム
ニス
バシ
ボリス
マスタ
ラズ
ワラ
二子
儒学
光源
公然
分譲
勘定
大英
大晦
宗派
岩見
島嶼
快く
採り
携行
断定
於け
旧約
暮れ
未定
松崎
柳田
栄町
桟橋
横手
橋上
正宗
清国
疫病
白血
真一
真人
禁煙
税金
紅茶
花粉
花序
苦痛
裏切っ
西軍
規律
親密
軟式
迫撃
重なる
##チコ
##ムラー
##ca
##ダック
##マルク
##ジメ
##KS
##キリ
##メロ
##ばっ
##どき
およぶ
##シアン
サンライズ
##ヴァイ
コミカル
##ッツィ
一人娘
バーガー
ユーリ
立ち上げる
組み込ん
ファイバー
シェーン
シンフォ
##チュウ
オペレーション
1835
コレクター
1790
ケンカ
1828
ブレイド
ホイット
Team
コメディアン
ヴァイオリニスト
ゴルファー
返り咲
South
かわいい
College
アスレチックス
メドレー
General
マリーンズ
有楽町
ファステスト
サンスクリット
大晦日
Fest
PAR
QB
TIME
ad
つり
のぶ
もみ
やろう
イデ
イスタン
カビ
ギネス
ゴア
サターン
タナ
ダール
ナイツ
バーンズ
ボールド
リラ
リフレ
ルミ
ロリ
一変
一途
一杯
三上
下町
二男
以東
入省
包丁
十和田
即時
受理
古田
右肩
四股
在外
壱岐
実母
小早
山上
巻末
復員
戦わ
揚げ
文教
文武
晒さ
本営
本艦
本曲
本誌
林業
桜田
梶原
欠如
武官
沙織
洋一
滅び
略記
砂浜
福建
秘宝
空い
節約
系外
続投
習志
脚部
西園
試料
誘発
谷村
貼ら
辰巳
速球
闘う
預かり
頭上
##ブズ
##de
##・チ
##・ノ
##レフ
##ベックス
##バオ
##ペクト
##語り
##ぼし
##ディック
##ディション
クラスター
フィッツ
ステート
##ヴィング
アーロン
デザート
##コンシン
マルセイ
フリーランス
モンテネ
スピーチ
スピリット
アラゴン
コミュニティー
負け越し
##ザンヌ
おおさか
マグニ
レオナルド
かたわら
キュア
ブックレット
しゅん
##・ディビシオン
サイコロ
ウエスタン
スネーク
Girls
リヴァプール
ラファエル
Michael
吉祥寺
二階堂
小早川
習志野
"」
Brow
KN
Nat
Sant
Vi
あべ
ゴリ
シンジ
スレイ
セクシー
ソープ
マルス
ムサ
モザ
リチウム
中庭
井伊
内訳
化成
単装
口論
合祀
家柄
届出
履い
島村
年内
復古
慰霊
扶桑
技研
撮っ
文科
斡旋
昇叙
星雲
景品
柏木
欠かせ
殴ら
水軍
沈み
湿原
牽制
狂気
現す
登っ
祭典
美咲
船首
花見
花崗
西北
言論
課さ
議定
足場
軽便
遠野
郡上
駆除
麻呂
齋藤
##リケ
##・ジェ
##ster
##ズラ
##NC
##らせ
##おい
##ぼり
クラウス
ドラキュラ
##ステークス
233
235
ステファ
スペンサー
ウェス
持ちかけ
こうえん
ジュラ
##ida
グラブ
##ルドルフ
802
##ッフル
書き換え
1844
777
Leg
エディンバラ
ミッドナイト
##グループ
バークレー
つとめる
ヒドロキシ
カスティーリャ
モニュメント
モンテネグロ
Box
CAS
Center
JB
Kar
MIX
Wil
ind
わだ
アヴェ
カト
コリンズ
ゴリラ
サヴォ
サプライズ
シモ
トカゲ
ナイル
ニッケル
ネバダ
ノーマン
パティ
パウル
ビオ
中途
先立ち
光秀
円谷
加担
名高い
国司
埋蔵
屈折
山林
工具
平年
平城
恵那
標榜
橿原
次作
正午
死別
残念
治虫
温室
漁獲
特科
相方
硬い
神器
秀雄
竹下
美学
臆病
若しくは
薦め
軍政
農耕
##イチ
##・ゴ
##しこ
##con
##ho
##ジュー
##ガング
##こち
##ニシ
##かれ
##流し
##ティックス
キャッスル
##inn
フランコ
引き下げ
アンサンブル
フェデ
##ヴァルト
##ジェット
シュレ
思い込ん
繰り上げ
##unk
呼び出さ
切り替える
ヴェン
披露目
##ADOK
Space
バレンタイン
カイザー
1825
下り線
スラッシュ
EXILE
BLACK
アレクサンドロス
##UMP
メタリック
リミテッド
尽くす
ピクチャーズ
##ロニクス
あおい
フレンチ
アインシュタイン
ウィスコンシン
オセアニア
Cry
FK
IA
MAG
Post
SI
Tu
Tim
かご
こな
こめ
なぎ
なが
アニー
イロ
オデ
ゲオル
タオル
ハク
ハネ
ビアン
プトレ
ボンド
ボギー
ポス
マーズ
リハー
ルック
レスター
ロッキー
中尾
中居
優良
先立っ
創価
参院
収縮
名曲
大蛇
如何
局面
居候
干拓
待避
従者
応える
悪夢
打球
払っ
技量
採算
操舵
教訓
新進
東野
模範
機長
正門
氷室
流布
父方
発布
白く
直子
着地
絶縁
至近
蒸発
被弾
観世
譲受
財宝
貸与
贈呈
踊っ
遺骨
金賞
飯島
首謀
駐日
##ルダー
##res
##くじ
##cal
##cus
##すら
##ty
##ケア
##の川
##モフ
208
キャリー
フェアリー
##リングス
レイチェル
アップロード
打ち切ら
##unic
キングダム
##クサス
やりとり
1814
ダーウィン
##AKA
メンフィス
Season
Express
ラウンジ
COMP
モニタ
ジェフリー
Soul
見下し
グラフィックス
リマスター
エメラルド
リハーサル
Bus
DL
Dig
Fre
IF
IOC
List
Ma
Sel
UK
くぼ
すっかり
づらい
エタ
コサック
サカ
サティ
サーン
セオ
ツン
ノール
パプ
ピストル
フランド
マッケ
ラッピング
ルーン
ロム
ロータス
ワルツ
不定
人為
伊吹
保た
優れる
充填
冥王
千島
博文
四肢
執る
増援
多忙
大海
安楽
弓道
張る
応急
怒る
手腕
新鋭
東村
枯れ
柏崎
歌集
消去
添付
湯川
溺愛
火葬
烏丸
疑う
的確
素早
繁華
脇役
菊地
藤枝
術師
街路
解け
許す
談話
諸葛
赤道
退院
逸脱
酢酸
重症
鉄拳
長江
隣国
集成
頼む
馬主
鮮明
##カヤ
##TE
##oid
##・ジュ
##gan
##PC
##マイオス
##ニェ
##ミヤ
##デヒド
##ар
##ひこ
##ゆり
##強く
##ティマ
ファスト
インバータ
##ars
バスケ
取り込み
オーシャン
ニューカ
サンプリング
ジョヴァン
ウェポン
##oud
404
少なから
3500
くるみ
##ルドバ
呼び寄せ
追い詰める
430
キロワット
1845
1801
1832
##シェヴィ
ブレーメン
じゃん
ベイカー
1812
1810
DeNA
スプレー
チューン
737
ミラージュ
カロリー
OFF
ウォーレン
ガリシア
エミール
見舞い
NAID
リモート
イノベーション
ひどい
##formation
Engine
しゃべり
マクシミ
モザイク
Nav
Rain
かめ
ぐら
むつ
ガキ
ガッツ
キツネ
シクロ
ツル
ドーナ
ドルフ
ドッキング
ナギ
ペガ
ボロー
ポイン
ミナ
ミラン
ヤギ
ワーズ
井原
付さ
円錐
劣勢
励ん
動植
包ん
即ち
大林
大日
専ら
小谷
川沿い
床下
態勢
捕まっ
推挙
掴ん
操車
日の
明白
暗闇
書体
有望
村井
欠ける
正平
河村
法師
浮気
清原
溢れ
猪木
白金
盗ま
神山
続出
自決
蕎麦
表れ
装っ
覇権
賞品
足首
転出
退位
雇っ
須藤
##テリア
##ロース
##チク
##ビオ
##ビッチ
##uz
##UG
##ガルド
##かも
##息子
##津川
##届け
##ani
212
引き出す
サンガ
275
##elle
シュウ
レイモンド
ターナー
ちゃんと
ハーブ
##ORN
切り裂
##ENS
##aven
##ova
ダイヤル
1834
バレル
##サイユ
##ugh
ダイナマイト
滅ぼす
##ガイモ
##っぽん
##other
オカルト
弾き語り
中津川
宮古島
##まつり
##YPE
ブエノス
イスタンブール
420
Lv
NY
gl
かり
きく
きよし
こば
イシュ
エヴァン
チー
チルド
トッド
ドク
ニャ
ネギ
バラン
ピーチ
ヘラク
ペーター
ヤス
ヨコ
偽名
優遇
元亀
先天
募金
占有
受諾
叙事
叩く
合致
名手
喋り
国史
土方
変光
変調
女房
客席
就き
就業
島民
崩落
川辺
意地
感知
戊辰
成瀬
掛ける
放り
政友
故意
敵機
新車
新選
札所
根室
武雄
民政
気流
港町
湖沼
生やし
産生
発送
目立た
着る
祝賀
等しく
簡略
約数
純一
細野
綱領
苦情
荒野
血球
謀反
谷山
貴子
透過
震源
龍馬
##スラー
##ナリー
##va
##Pa
##ki
##DAY
##てん
##ぶき
##17
##がね
##ペー
##伝え
##ろさ
##高田
##残さ
##暮れ
##ージナル
ついで
##リスク
ディストリ
サンズ
ウィッチ
ブライト
##ヴァール
##んどん
##アルプス
##umb
アクロ
333
##ORA
ガンバ
ギャップ
アンドロイド
ルーシー
##istr
コンビネーション
1847
1813
買い取り
##awa
はじまり
スタンフォード
エミリー
##ович
ISSN
ノルマンディー
Richard
SPORTS
ロドリゲス
西園寺
フランドル
"、
KADOK
MW
Top
und
こま
しつ
たき
ねずみ
アレイ
エリカ
キール
シダ
セブ
ニトロ
バイン
バロン
ポータル
マギ
ミゲル
レトロ
一日
三和
不便
人的
今村
体裁
僅差
入城
凄まじ
副題
創出
動け
同義
名取
啓発
回す
因果
均等
変則
奪回
安く
安房
座る
快挙
憎しみ
掴み
散々
智子
松川
死闘
潮流
燃える
牛肉
産み
甲冑
癒し
直江
砂丘
神輿
神仏
種々
稼い
筑前
精通
紙面
縛り
聴衆
自重
船内
華麗
謹慎
遺し
鉄骨
鉄人
随所
雅子
高裁
##クティブ
##フライ
##OID
##イー
##オフ
##オリンピック
##ヨウ
##キスト
##あわせ
##ゴビナ
##ばな
##付く
##ティコ
キャメ
ファウ
ともさ
##atic
##ニアム
なおかつ
ジェファーソン
オリバー
カーネ
##リストル
シュト
マルティン
##adem
##ures
##ARS
カルデラ
追い出さ
使い分け
##合わせる
亡くなり
リスボン
ハードル
結びつき
たかはし
##・オブ
ワーキング
オオカミ
Abema
すみれ
##otten
アンソロジー
Party
入れ替わる
執り行わ
ワトソン
チュニジア
プトレマイオス
KADOKAWA
Dis
Game
Lab
MID
Tel
hp
mac
nm
あう
うし
かる
にっぽん
やつ
よん
りく
アホ
アロン
アストラ
カッ
キノ
クセ
ゾー
ダイス
トリス
ヒスパ
ビラ
ブリストル
ヘアー
ペロ
リビング
ロナルド
ロースター
三谷
中絶
中里
丸子
亜紀
分水
前輪
前任
動的
号し
吾郎
呉服
善光
囲む
増税
外れる
宗谷
実兄
容積
川西
常用
平戸
座敷
強襲
微笑
微小
快楽
急い
性交
悪意
悪かっ
成体
戸惑
方角
本業
板倉
構わ
正史
汲む
治める
法規
浩一
煙草
爆薬
相良
知覚
石造
稚内
競い
葛藤
装束
親和
試行
諫早
返却
送迎
速水
遠州
鉄板
長屋
閉じる
阪和
順子
額田
##ring
##eet
##くっ
##cle
##ソーム
##マニ
##HER
##ましい
##でる
##ろく
##("
##孫子
##ティクス
251
マンモス
スターダスト
シュラ
トラスト
ビルディング
バーミ
イベリア
もとづ
##agon
Char
##ヴェイ
エアバス
押し付け
エイベックス
##トゥー
ラグナ
エスパ
トレーディング
まっすぐ
##アイレス
きれい
Days
オースティン
サイクリング
##tainment
Championship
恐ろしい
各務原
マルセイユ
動植物
Are
DI
GDP
Jour
MI
Mov
Nint
「-
しめる
エレン
グッ
ドナウ
ホステル
ポータ
ラザ
リンチ
レギ
ワーグナー
予め
供述
内山
刀剣
別個
励まし
叩い
吹く
土台
壁面
大金
太く
姉弟
対人
属州
巡業
左目
左足
年々
彩色
愛犬
払う
新版
是非
東証
楽屋
機内
海抜
清和
渡部
溝口
焼か
片桐
版権
異変
皇位
確執
社民
税関
等々
答申
絵巻
義兄
腎臓
討た
課金
踏む
軍備
都度
長嶋
開学
陶芸
離散
青空
頻発
##カナル
##アリ
##バンド
##ジカル
##ji
##ぶれ
##ワンダ
##ゴット
##んと
##ゾー
##掛かる
207
1821
##ディスク
##ージャー
コンスタ
ステルス
マンダ
ジョイント
ブラス
##レンツ
入り込ん
ユニバース
ジュピ
off
Station
立ち入り
410
パラシュート
読み上げ
Arc
スイーツ
チューリッヒ
エクア
振るう
##ジョー
Brit
##ミネーション
コンパイル
セーヌ
メディカル
でんしゃ
細長く
柔らかい
セグンダ
##・フォン・
チャーチル
テイルズ
Ult
アイデンティティ
FESTIVAL
ブエノスアイレス
Nintendo
Band
Die
HK
JAS
Just
Kr
Not
Si
Way
えび
たなか
ちり
づける
でる
もく
エメ
トミ
ドウ
ヘイズ
ペンタ
マゼ
久慈
交替
人情
休場
伺える
倉田
八丈
内政
刀身
利家
原典
古参
合図
同駅
名勝
国人
密教
履修
岩槻
平時
廃し
悪霊
戦乱
承和
抜か
植田
歪み
歳月
浄水
渋川
無実
独学
瑠璃
生死
篠山
綴っ
総社
肩書き
触発
講道
跳び
酷評
金井
長兄
関脇
露天
鳳凰
##ym
##セー
##ドス
##なべ
##ür
##太后
##千穂
##ランジェ
##ストリー
##ストレーション
173
引き離
ジェニ
##omo
ブルーム
ヴィーナス
マーキュ
##ury
##ump
フレア
中継ぎ
迎え入れ
ブルーノ
1833
トレイル
##udio
1816
1793
グレッグ
##ible
ドーピング
999
セレモニー
ホルダー
フリップ
フリッツ
兼ね備
スタンリー
カプコン
##ビュート
##vex
NSC
Official
金田一
目論ん
フェリックス
フレンズ
かえって
PHP
パワフル
グライダー
バーナード
鳴き声
Institute
ポテンシャル
Cre
Dance
EB
Mat
TYPE
VV
mix
rad
すき
せっ
みょう
わき
エミー
オークス
ガダル
ケガ
ゲッター
コブ
ゴマ
シム
トレン
ナチュ
ヒカリ
リィ
リボ
レッツ
三越
下賜
両足
伝染
作ろう
修験
六十
刑罰
受給
叙爵
夏期
大々
大館
大滝
大隅
天武
太い
小浜
山西
年号
幻影
幼名
惨敗
拾わ
敦子
旧知
旧名
晋三
止まる
生け
皇居
直近
真ん
管領
粉末
純子
細分
衰弱
要所
見合い
計上
記入
転封
返事
通す
適性
遭う
酔っ
野郎
鍋島
防火
電線
靖国
館内
魅了
鹵獲
##カビ
##カライズ
##・フィ
##ベー
##ベツ
##ジム
##ヒェン
##ニエル
##92
##たて
##ボエ
##敷き
##巻く
##張る
##投げ
##ティション
##ディオン
##iness
##レーナ
ジャコ
217
ディラン
取り締
##itch
アンゴラ
サーベル
ダイエット
カーボン
Stand
シェリー
シェパード
なかよし
##obe
売り場
ブレンド
ラテンアメリカ
LIFE
スロープ
ソルジャー
ESP
##・ヘルツェ
ひたち
海老名
移り住ん
ボスニア・ヘルツェ
KDDI
あふれる
ストリーミング
バングラ
てれび
なでしこ
気仙沼
ピョートル
WOWOW
##シェヴィキ
ガダルカナル
ボスニア・ヘルツェゴビナ
080
AX
Doc
Gar
Hall
House
LR
RF
TA
ed
min
up
あわ
かぐ
ひかる
まわり
カージナル
シアン
セロ
タタール
ノズル
ハレ
ハルト
バネ
ババ
ルフィ
ロケーション
三笠
両名
井口
亜目
佐川
倣っ
先鋒
兵科
別館
加水
國學
子弟
宮原
対日
岸田
市議
帯域
常駐
年数
弘仁
彷彿
念願
支柱
改心
放水
曳航
桜島
深度
火口
無口
猛烈
畿内
真壁
空想
笑う
笑福
胎児
自軍
行軍
行程
衝動
西線
覚書
越し
転戦
追尾
遠江
長政
関門
音階
頭頂
飽き
黒字
##och
##ios
##・サン
##ネコ
##ビック
##バスティ
##ゼット
##ウオ
##ツク
##けい
##ぬき
##ль
209
ことごと
##ディッシュ
ファンク
スタント
213
##シアード
##itz
##ローナ
サンリオ
ウィズ
ジェシー
ランディ
##ouch
カーテン
ティーン
##ッパーズ
乗り込み
追いや
440
inst
レスキュー
振り付け
エレキ
アトレ
けんじ
グリム
1804
アスキー
##シェン
1791
##キンソン
1824
パートナーシップ
ブレイブ
##azine
SEED
Muse
積み重
東大阪
アンジェラ
ミカエル
飼い主
あずさ
チャップリン
RKB
music
カリスマ
真ん中
笑福亭
ことごとく
520
Ba
Cast
Fin
Hor
IW
Key
Les
Mur
NK
PE
VIS
WR
York
くさい
ごみ
だる
とに
わく
アングル
オチ
カーズ
キク
ダビ
ナゴ
パノラマ
ピリ
リターン
ロザ
ワカ
丈夫
不老
併記
俊彦
加勢
厳重
取組
台座
嘆き
囃子
四谷
大帝
大學
孔子
安曇
定格
実数
宣誓
川中
度合い
役柄
心霊
忠臣
我孫子
手札
手榴
排他
既婚
日替わり
未完
林道
欲し
溜め
由利
異形
疑念
白黒
矢島
短波
磯部
祝う
空爆
精算
縦貫
羽織
習っ
能代
藤崎
製鐵
要職
計器
貫い
通年
防い
##アール
##・ブラ
##gg
##hor
##ウリ
##つう
##ニヤ
##53
##ポラ
##矢理
アルス
アルフォンソ
ライム
クライン
フィルタ
ディル
取り残さ
223
ときめき
401
スーザン
チェイス
ダイオ
ISU
##ANA
レコーズ
##ague
##eck
シンポ
##イアール
##ISE
Album
1836
ブレスト
1819
ソーラー
ヤンキー
SUMM
ガイウス
エレクトロニクス
無理矢理
ジェネラル
シグマ
こんに
マキノ
presents
ねじ込み
ネクタイ
オリエンタル
##ラノサウルス
ノウハウ
さかのぼる
マッサージ
おろか
Children
ハガキ
カージナルス
Media
SQ
SONG
VT
VII
ZIP
たむら
ひょ
アスト
アスタ
カカ
ケロロ
シボ
ジングル
セバス
ソナー
ハール
ピル
マム
ヤシ
一座
七尾
三郷
中級
先導
兵隊
再演
出塁
効か
南洋
右目
同党
埋立
堪能
塗料
増補
変種
大洲
安東
定量
審理
小路
屋号
岡野
幻覚
広田
怪談
恭子
手元
投合
接種
散策
文言
旅立つ
日進
早苗
書状
汚職
沢東
注ぎ
清盛
渥美
湿度
漱石
球状
生贄
生える
白紙
直立
相鉄
義昭
背部
脚色
菊花
衆院
西成
課せ
譲ら
讃え
貯蓄
転任
連なる
那賀
邪神
銀貨
防具
頑丈
餃子
高杉
鮮やか
##day
##yth
##ヴス
##トール
##AIN
##のこ
##の毛
##ヒム
##ニッツ
##ピラ
##かみ
##戻さ
おいしい
221
引き渡し
引き受ける
ステー
##スタイン
生まれ育
ヴァルト
クロノ
##ンプシャー
##ニングラード
ハイデル
プラネット
入れ替わり
##agram
##une
##クロウ
##ORI
701
パラグアイ
エアコン
##ッキン
飛び降り
##ITE
##ika
##ティアゴ
##トラック
1783
##ブレヒト
ピエロ
まちづくり
ミリメートル
スライム
Internet
UFJ
タブレット
ふしぎ
ロックンロール
ニューカッスル
ジョヴァンニ
950
Da
Hu
Jack
Line
Luc
Mix
MOD
Rac
avex
bit
じろう
イム
エヌ
カブス
ガチャ
クズ
デール
ハシ
パース
モレ
ラル
ルル
ワンダ
一ノ
一様
三ツ
両替
二条
元ネタ
六甲
円滑
出せる
前原
加筆
嗣子
地検
多治
大邱
失策
奥村
定例
家計
小出
小栗
居士
履行
崇敬
布施
式部
後編
急襲
成城
戻ら
所収
擲弾
放流
教導
曽根
本隊
東上
東宮
東都
正一
比重
比叡
江口
沢山
浅川
玲子
白銀
皮質
石鹸
福澤
移譲
素性
網羅
缶詰
罹患
航法
蔵王
行ける
街頭
見い
見捨て
試し
資質
超越
道真
遷移
酷い
長き
長所
関白
降雪
除名
頼る
風速
風邪
高千穂
##テーヌ
##リックス
##ョク
##ven
##PA
##パラ
##グレード
##バシー
##for
##のすけ
##ゲルス
##ボックス
##YO
##ミラ
呼ばわり
ストーカー
##ison
##isch
サンティアゴ
ウィルス
ランズ
ショッカー
##ility
406
ローゼ
365
パラレル
ダンカン
STER
オペレーター
マスカ
1794
##チュアート
ブランチ
アントワ
バラエティー
アサルト
インディアンス
フュージョン
メソッド
レクリエーション
チェルシー
Prem
##GBT
ラトビア
allcin
ペプチド
Battle
とにかく
allcinema
Du
Dou
Home
LL
Po
Pop
Ros
Year
](
ああ
さっ
むす
めちゃ
やき
エポ
ガト
コシ
サハラ
スチュアート
テア
ドキ
バニ
バール
ピール
ポテ
ラバー
ロフト
ワリオ
一掃
一関
万里
下方
京葉
京畿
今夜
低床
内臓
反戦
受精
哲郎
国税
城塞
子宮
客演
左遷
帝位
当人
後頭
慎吾
手袋
手作り
持て
描画
握手
敬愛
数理
文官
斬新
新発
曲がっ
月額
棋院
業種
構文
横川
正気
殺戮
比定
沖田
満塁
無期
目当て
真由
突い
童謡
絵図
線維
羽毛
羽柴
膨ら
自白
蔓延
薄れ
衣料
西脇
視認
訃報
説く
豪快
跳躍
返答
連星
遂げる
酸性
鎌田
開講
離着
頭骨
馳せ
駅員
鹿屋
##くし
##ナリ
##ナモ
##・ベル
##・コン
##・ウィ
##SC
##ネオ
##レコ
##こもり
##メト
##之江
##集め
##ヶ島
##ントゥ
##ンドラー
アルブレヒト
1780
305
チャド
252
タイラー
216
取り込む
238
285
##スタイル
持ち込む
クロロ
ティラノサウルス
立ち寄っ
モンロー
向かわ
なかむら
プリズム
パラリンピック
知り合う
エドワーズ
1806
1837
見つめ
スプラ
##ection
クイック
-』(
ユニバーシアード
UNIX
ツインズ
##ゲームス
##anced
コクピット
Network
ナッシュビル
Europe
##ムナジウム
シンポジウム
離着陸
Bay
IG
Jul
JAM
JUN
Mid
NF
OUT
SKE
かおる
げき
どんどん
よら
アセン
カザン
キヤ
クウェ
セナ
ダンプ
デモン
ニース
バスト
パター
ピロ
ヘキサ
ベガ
ベント
マラー
ミト
レンタ
ワースト
不変
与謝
仙石
何事
共謀
兵団
内村
別姓
制止
千尋
叱責
和睦
因幡
増進
天照
失調
孫権
山車
年月
幼生
序列
忍法
忠義
悲惨
扮する
接点
擬態
新館
未婚
本因
材木
横穴
水位
氷川
江西
注力
洗い
渡来
満鉄
潜航
潤滑
焼く
熟成
王太子
用心
甲殻
疾病
発火
真夏
移入
竜巻
笠間
紛れ
結党
艦内
藝術
行幸
衣笠
誘う
護国
軍縮
退屈
防犯
陥れ
頒布
龍一
##ique
##・キャ
##セイド
##トフ
##パック
##ニョン
##84
##ましく
##ポタ
##八郎
##津子
##清水
##へい
##ターンズ
##リーノ
##ティヴ
##ディナ
プロット
##ones
フェミニ
ブラザース
##レンブルク
ローラン
パーカ
マーカー
ジュリー
##ider
ジョンズ
ガンマ
##aker
トリビュート
int
リアリティ
ファミ通
##UNT
1829
Contr
##onder
##UTAYA
##ather
浮かび
あさひ
Guitar
ツイート
マインツ
HTML
ヘーゲル
きちんと
やむなく
ギブソン
BASIC
##チュエーション
ベオグラード
マクシミリアン
エクアドル
FP
HM
Happ
JFA
Que
Sat
SKY
WHO
いづ
おれ
きし
はね
まじ
エイド
カヌー
ギニア
ギフト
トレント
ネロ
ハングル
ピッコロ
ベネット
ボア
モットー
レナード
両院
丸太
件数
体温
侵食
偽り
傾き
切符
前座
北宋
博之
占星
叫ぶ
呈する
哲夫
変奏
奉天
奏法
嫁い
安堵
宿禰
小僧
恩師
戦没
拒ん
拓也
挙がっ
挫折
採決
散弾
文春
日大
明子
暫く
曽我
梁山
植生
欠番
欠乏
民進
水陸
決行
混ざ
混沌
渤海
燃やし
狂言
空輸
米英
緩衝
芭蕉
英治
裏切ら
製剤
西国
診察
詫び
転勤
連日
重心
重役
長沼
降雨
障壁
青柳
飼料
高城
髪の毛
##nal
##ple
##のめ
##デーニャ
##かしい
##寄る
##塗り
##読み
##開き
プロレ
インペ
コンストラクター
ともども
##atus
フィンガー
スタンス
スタッド
ディケ
ゲームズ
アイザック
ステラ
ステファン
ジェイアール
##oul
シャム
生まれ変
##フェイス
たいてい
シュワ
乗り込む
##マーレ
思い込み
321
モンキー
クレーム
ハンナ
inc
##ウィウス
ゆうびん
スマトラ
##トゥール
##カンソー
Progr
1827
1776
##ニャン
気づく
ベネディ
スルタン
ナンシー
いしかわ
TSUTAYA
不二雄
相応しい
Studio
持ち帰っ
われわれ
コンペティション
シュトラウス
マーキュリー
バングラデシュ
セバスチャン
新発田
本因坊
)"
Aust
Div
MIN
PO
Pent
Vita
WRC
var
おだ
おしゃ
とらえ
ぶち
みん
わし
ガオ
ガレージ
グン
ケーニ
ケプラー
サッ
セシル
ゾロ
タジ
ツキ
テッサ
デスク
トシ
ナンパ
マチ
ヴュ
一心
下さい
下回る
不通
中曽根
事案
五男
企図
但馬
個室
全豪
八千代
写っ
前編
前漢
可汗
君津
大浦
媒介
守ろう
届ける
岩瀬
帝京
廃れ
徳永
我慢
抑留
掛かっ
搬入
文帝
曲目
本庁
江蘇
浄瑠
海津
激励
目立ち
真下
矢印
神武
篠田
絡む
義父
脳内
芳香
講じ
賛否
軍服
遺品
那智
配送
配電
酔い
鉄工
鋼板
鐘楼
青海
領内
##カード
##ナガ
##イック
##イッチ
##・ヤ
##min
##バール
##の間
##ハメ
##ミアン
##14
##ゴロド
##ちん
##ディスト
ジャガイモ
232
##iter
コーティング
##ブルック
##hed
##omen
チェスター
ヴィクトル
プレイス
プレッシャー
レイプ
##ARI
クレタ
アドリア
##aph
シーケ
1802
1805
ニコル
ルイーズ
見つかる
プライバシー
1792
##ource
##iba
マジカル
駆け付け
##ドンナ
NPC
降りる
##ラクティブ
##ニョーラ
ハロウィン
デラウェア
チャイコフスキー
ダイアナ
ひたすら
切り離し
バビロニア
うかが
##velop
アクシデント
ベンガル
いのち
Festival
ペガサス
ジュピター
ハイデルベルク
浄瑠璃
AIR
Hz
IX
MEN
MIT
NIGHT
RAM
SY
mph
える
ごま
じま
せり
せかい
ふつう
ウニ
エリオット
クルト
シチュエーション
ニカ
ニンジャ
パーマ
モータ
一式
一端
中町
主計
五百
全校
利き
口蓋
古谷
可児
嘆願
嘱託
地底
大腿
好投
守谷
官制
宝亀
対向
射手
序文
庶子
廃刊
彫像
念頭
恩赦
成就
手本
抜粋
挑み
散乱
整合
新疆
日田
朝食
格上げ
永野
沖合
津久
活字
海部
湯浅
激闘
爆雷
独創
王都
由良
異教
相生
石神
立証
筋力
粘り
綾子
繋ぎ
罰則
羽衣
要約
討つ
軽快
述懐
連作
配役
野島
鉄製
鍼灸
鑑み
陸海
雨宮
電解
高座
鴻巣
##ーザ
##・ギ
##・カル
##ヘア
##マーン
##án
##あっ
##89
##72
##ざす
##ZA
##歩き
##ールー
##erry
コンバット
255
スタミナ
オーボエ
246
241
ストーンズ
##ウンズ
##els
290
##スタル
アナザー
##ッジョ
ハーモ
ハーバート
ハーレム
繰り出し
##ape
トランジスタ
まとっ
##ッサム
バンパー
640
1817
マリナーズ
##iana
PRIDE
サルデーニャ
ジェイコブ
##TRA
Carl
##afe
払い下げ
フューチャー
##ハイマー
##earch
ヴァイマル
リハビリテーション
エスカレーター
スムーズ
##anguage
SRCL
BT
CE
Core
HY
HERO
Long
Oh
Rotten
Soc
Tem
as
かも
こじ
つぎ
つかさ
とび
ぱん
みかん
エボ
コップ
サック
サプリ
ジブリ
スス
ミイラ
リポ
三成
上町
上回り
両目
久し
乱用
亀岡
井川
伊奈
佐原
併結
元就
公約
共済
包装
即死
厄介
原住
受刑
吉宗
名城
告訴
図形
天童
孫娘
宅配
将官
尋ねる
庄司
座り
心中
攘夷
放電
敬語
断る
旅立っ
旺盛
春樹
期日
条文
栗林
案件
森下
残高
流量
消毒
減便
漢方
瀬川
無機
産まれ
着実
租税
空海
笠原
結束
美紀
花巻
英二
英訳
蛋白
血清
起草
酋長
配さ
金貨
鉛筆
開墾
除隊
雄二
願望
香織
高根
鳥山
麻里
##クー
##・デル
##BE
##ウイ
##みらい
##ガモ
##ツカ
##ホーフ
##本町
##でん
##ぼっ
##帰り
##良野
##ティーナ
アルフ
##onic
キャビン
インダ
ジャッジ
フィナンシャル
取り消
ニューギニア
引き金
ジェロ
ジェイク
ブルジョ
ローブ
ダイバー
ヴィオラ
##ンダント
ラインハルト
##ジャーズ
付き合う
迎え撃
##チュン
言い伝え
##ther
クリム
STS
630
チョーク
1838
##ante
##グラフィ
1815
1798
突き止め
Unic
マグナム
##ボーイ
1787
セレブ
1775
ホイッグ
聞き入れ
埋め込ま
##EEE
スーパーマン
ジェネレーション
大いなる
コーポレート
リッチモンド
Metro
ネーデル
スノーボード
アパレル
御殿場
ナビゲーション
Tomato
アセチル
見守る
ファイナリスト
ネガティブ
Service
Science
ボナパルト
アイドリング
バーミンガム
Ha
How
JAL
SON
UM
sub
tra
くっ
ひだ
やめる
ガーナ
グラー
ゲラ
サミー
ザック
ゾル
チカ
テノール
ネブ
ハト
バント
ビザ
フセ
ブラー
ブリン
ヘリウム
ホフマン
ポーツ
メト
ラーマ
リド
ロレン
一挙
三位
三洋
不意
乗艦
京セラ
修得
全通
具現
再録
初旬
創元
北大
原文
和声
地所
壮大
大中
大宰
